{"bpe_ranks": {"i`n": 0, "t`h": 1, "a`n": 2, "r`e": 3, "a`r": 4, "e`r": 5, "th`e</w>": 6, "in`g</w>": 7, "o`u": 8, "o`n": 9, "s`t": 10, "o`r": 11, "e`n": 12, "o`n</w>": 13, "a`l": 14, "a`t": 15, "e`r</w>": 16, "i`t": 17, "i`n</w>": 18, "t`o</w>": 19, "r`o": 20, "i`s</w>": 21, "l`e": 22, "i`c": 23, "a`t</w>": 24, "an`d</w>": 25, "e`d</w>": 26, "o`f</w>": 27, "c`h": 28, "o`r</w>": 29, "e`s</w>": 30, "i`l": 31, "e`l": 32, "s`t</w>": 33, "a`c": 34, "o`m": 35, "a`m": 36, "l`o": 37, "a`n</w>": 38, "a`y</w>": 39, "s`h": 40, "r`i": 41, "l`i": 42, "t`i": 43, "f`or</w>": 44, "n`e": 45, "\u00f0`\u0141": 46, "r`a": 47, "h`a": 48, "d`e": 49, "o`l": 50, "v`e</w>": 51, "s`i": 52, "u`r": 53, "a`l</w>": 54, "s`e": 55, "'`s</w>": 56, "u`n": 57, "d`i": 58, "b`e": 59, "l`a": 60, "w`h": 61, "o`o": 62, "d`ay</w>": 63, "e`n</w>": 64, "m`a": 65, "n`o": 66, "l`e</w>": 67, "t`o": 68, "ou`r</w>": 69, "i`r": 70, "g`h": 71, "w`it": 72, "i`t</w>": 73, "y`o": 74, "a`s": 75, "s`p": 76, "th`is</w>": 77, "t`s</w>": 78, "at`i": 79, "yo`u</w>": 80, "wit`h</w>": 81, "a`d": 82, "i`s": 83, "a`b": 84, "l`y</w>": 85, "w`e": 86, "th`e": 87, "t`e": 88, "a`s</w>": 89, "a`g": 90, "v`i": 91, "p`p": 92, "s`u": 93, "h`o": 94, "m`y</w>": 95, ".`.": 96, "b`u": 97, "c`om": 98, "s`e</w>": 99, "er`s</w>": 100, "m`e": 101, "m`e</w>": 102, "al`l</w>": 103, "c`on": 104, "m`o": 105, "k`e</w>": 106, "g`e": 107, "ou`t</w>": 108, "en`t</w>": 109, "c`o": 110, "f`e": 111, "v`er": 112, "a`r</w>": 113, "f`ro": 114, "a`u": 115, "p`o": 116, "c`e</w>": 117, "gh`t</w>": 118, "ar`e</w>": 119, "s`s</w>": 120, "fro`m</w>": 121, "c`h</w>": 122, "t`r": 123, "ou`n": 124, "on`e</w>": 125, "b`y</w>": 126, "d`o": 127, "t`h</w>": 128, "w`or": 129, "er`e</w>": 130, "k`e": 131, "p`ro": 132, "f`or": 133, "d`s</w>": 134, "b`o": 135, "t`a": 136, "w`e</w>": 137, "g`o": 138, "h`e": 139, "t`er</w>": 140, "in`g": 141, "d`e</w>": 142, "b`e</w>": 143, "ati`on</w>": 144, "m`or": 145, "a`y": 146, "e`x": 147, "il`l</w>": 148, "p`e": 149, "k`s</w>": 150, "s`c": 151, "l`u": 152, "f`u": 153, "q`u": 154, "v`er</w>": 155, "\u00f0\u0141`\u013a": 156, "j`u": 157, "m`u": 158, "at`e</w>": 159, "an`d": 160, "v`e": 161, "k`ing</w>": 162, "m`ar": 163, "o`p": 164, "h`i": 165, "..`.</w>": 166, "p`re": 167, "a`d</w>": 168, "r`u": 169, "th`at</w>": 170, "j`o": 171, "o`f": 172, "c`e": 173, "ne`w</w>": 174, "a`m</w>": 175, "a`p": 176, "g`re": 177, "s`s": 178, "d`u": 179, "no`w</w>": 180, "y`e": 181, "t`ing</w>": 182, "y`our</w>": 183, "it`y</w>": 184, "n`i": 185, "c`i": 186, "p`ar": 187, "g`u": 188, "f`i": 189, "a`f": 190, "p`er": 191, "t`er": 192, "u`p</w>": 193, "s`o</w>": 194, "g`i": 195, "on`s</w>": 196, "g`r": 197, "g`e</w>": 198, "b`r": 199, "p`l": 200, "'`t</w>": 201, "m`i": 202, "in`e</w>": 203, "we`e": 204, "b`i": 205, "u`s</w>": 206, "sh`o": 207, "ha`ve</w>": 208, "to`day</w>": 209, "a`v": 210, "m`an": 211, "en`t": 212, "ac`k</w>": 213, "ur`e</w>": 214, "ou`r": 215, "\u00e2`\u0122": 216, "c`u": 217, "l`d</w>": 218, "lo`o": 219, "i`m": 220, "ic`e</w>": 221, "s`om": 222, "f`in": 223, "re`d</w>": 224, "re`n": 225, "oo`d</w>": 226, "w`as</w>": 227, "ti`on</w>": 228, "p`i": 229, "i`r</w>": 230, "th`er</w>": 231, "t`y</w>": 232, "p`h": 233, "ar`d</w>": 234, "e`c": 235, "!`!</w>": 236, "m`on": 237, "mor`e</w>": 238, "w`ill</w>": 239, "t`ra": 240, "c`an</w>": 241, "c`ol": 242, "p`u": 243, "t`e</w>": 244, "w`n</w>": 245, "m`b": 246, "s`o": 247, "it`i": 248, "ju`st</w>": 249, "n`ing</w>": 250, "h`ere</w>": 251, "t`u": 252, "p`a": 253, "p`r": 254, "bu`t</w>": 255, "wh`at</w>": 256, "al`ly</w>": 257, "f`ir": 258, "m`in": 259, "c`a": 260, "an`t</w>": 261, "s`a": 262, "t`ed</w>": 263, "e`v": 264, "m`ent</w>": 265, "f`a": 266, "ge`t</w>": 267, "am`e</w>": 268, "ab`out</w>": 269, "g`ra": 270, "no`t</w>": 271, "ha`pp": 272, "ay`s</w>": 273, "m`an</w>": 274, "h`is</w>": 275, "ti`me</w>": 276, "li`ke</w>": 277, "g`h</w>": 278, "ha`s</w>": 279, "th`an": 280, "lo`ve</w>": 281, "ar`t</w>": 282, "st`e": 283, "d`ing</w>": 284, "h`e</w>": 285, "c`re": 286, "w`s</w>": 287, "w`at": 288, "d`er</w>": 289, "it`e</w>": 290, "s`er": 291, "ac`e</w>": 292, "ag`e</w>": 293, "en`d</w>": 294, "st`r": 295, "a`w": 296, "st`or": 297, "r`e</w>": 298, "c`ar": 299, "el`l</w>": 300, "al`l": 301, "p`s</w>": 302, "f`ri": 303, "p`ho": 304, "p`or": 305, "d`o</w>": 306, "a`k": 307, "w`i": 308, "f`re": 309, "wh`o</w>": 310, "sh`i": 311, "b`oo": 312, "s`on</w>": 313, "el`l": 314, "wh`en</w>": 315, "il`l": 316, "ho`w</w>": 317, "gre`at</w>": 318, "w`in": 319, "e`l</w>": 320, "b`l": 321, "s`si": 322, "al`i": 323, "som`e</w>": 324, "\u00f0\u0141`\u0134": 325, "t`on": 326, "d`er": 327, "le`s</w>": 328, "p`la": 329, "\u00ef`\u00b8": 330, "e`d": 331, "s`ch": 332, "h`u": 333, "on`g</w>": 334, "d`on</w>": 335, "k`i": 336, "s`h</w>": 337, "an`n": 338, "c`or": 339, ".`.</w>": 340, "oun`d</w>": 341, "a`z": 342, "in`e": 343, "ar`y</w>": 344, "fu`l</w>": 345, "st`u": 346, "ou`ld</w>": 347, "st`i": 348, "g`o</w>": 349, "se`e</w>": 350, "ab`le</w>": 351, "ar`s</w>": 352, "l`l</w>": 353, "m`is": 354, "b`er": 355, "c`k</w>": 356, "w`a": 357, "en`ts</w>": 358, "n`o</w>": 359, "si`g": 360, "f`e</w>": 361, "fir`st</w>": 362, "e`t</w>": 363, "sp`e": 364, "ac`k": 365, "i`f</w>": 366, "ou`s</w>": 367, "'`m</w>": 368, "st`er</w>": 369, "a`pp": 370, "an`g": 371, "an`ce</w>": 372, "an`s</w>": 373, "g`ood</w>": 374, "b`re": 375, "e`ver": 376, "the`y</w>": 377, "t`ic": 378, "com`e</w>": 379, "of`f": 380, "b`ack</w>": 381, "as`e</w>": 382, "ing`s</w>": 383, "ol`d</w>": 384, "i`ght</w>": 385, "f`o": 386, "h`er</w>": 387, "happ`y</w>": 388, "p`ic": 389, "it`s</w>": 390, "v`ing</w>": 391, "u`s": 392, "m`at": 393, "h`om": 394, "d`y</w>": 395, "e`m": 396, "s`k": 397, "y`ing</w>": 398, "the`ir</w>": 399, "le`d</w>": 400, "r`y</w>": 401, "u`l": 402, "h`ar": 403, "c`k": 404, "t`on</w>": 405, "on`al</w>": 406, "h`el": 407, "r`ic": 408, "b`ir": 409, "vi`e": 410, "w`ay</w>": 411, "t`ri": 412, "d`a": 413, "p`le": 414, "b`ro": 415, "st`o": 416, "oo`l</w>": 417, "ni`ght</w>": 418, "tr`u": 419, "b`a": 420, "re`ad": 421, "re`s</w>": 422, "ye`ar</w>": 423, "f`r": 424, "t`or": 425, "al`s</w>": 426, "c`oun": 427, "c`la": 428, "t`ure</w>": 429, "v`el": 430, "at`ed</w>": 431, "le`c": 432, "en`d": 433, "th`ing</w>": 434, "v`o": 435, "ic`i": 436, "be`st</w>": 437, "c`an": 438, "wor`k</w>": 439, "la`st</w>": 440, "af`ter</w>": 441, "en`ce</w>": 442, "p`ri": 443, "p`e</w>": 444, "e`s": 445, "i`l</w>": 446, "\u00e2\u0122`\u00a6</w>": 447, "d`re": 448, "y`s</w>": 449, "o`ver</w>": 450, "i`es</w>": 451, "\u00f0\u0141`\u0133": 452, "com`m": 453, "t`w": 454, "in`k</w>": 455, "s`un": 456, "c`l": 457, "li`fe</w>": 458, "t`t": 459, "a`ch": 460, "l`and</w>": 461, "s`y": 462, "t`re": 463, "t`al": 464, "p`ol": 465, "s`m": 466, "du`c": 467, "s`al": 468, "f`t</w>": 469, "'`re</w>": 470, "ch`e": 471, "w`ar": 472, "t`ur": 473, "ati`ons</w>": 474, "ac`h</w>": 475, "m`s</w>": 476, "il`e</w>": 477, "p`m</w>": 478, "ou`gh</w>": 479, "at`e": 480, "st`ar": 481, "wee`k</w>": 482, "!`!!</w>": 483, "c`lu": 484, "th`ere</w>": 485, "n`er</w>": 486, "t`om": 487, "s`el": 488, "\u00ef\u00b8`\u0131</w>": 489, "wor`ld</w>": 490, "v`es</w>": 491, "c`am": 492, "go`t</w>": 493, "in`ter": 494, "of`f</w>": 495, "u`m</w>": 496, "ton`ight</w>": 497, "o`ther</w>": 498, "h`ou": 499, "loo`k</w>": 500, "j`e": 501, "i`d</w>": 502, "si`on</w>": 503, "be`au": 504, "at`t": 505, "el`i": 506, "or`t</w>": 507, "re`c": 508, "f`f": 509, "st`er": 510, "su`pp": 511, "g`en": 512, "be`en</w>": 513, "il`y</w>": 514, "te`am</w>": 515, "m`m": 516, "i`c</w>": 517, "pe`op": 518, "it`t": 519, "at`s</w>": 520, "on`ly</w>": 521, "mb`er</w>": 522, "en`g": 523, "b`ri": 524, "m`p": 525, "k`now</w>": 526, "b`ur": 527, "b`ar": 528, "in`s</w>": 529, "lo`w</w>": 530, "sh`e</w>": 531, "ro`w</w>": 532, "\u00e2`\u013f": 533, "t`ro": 534, "peop`le</w>": 535, "vi`a</w>": 536, "lo`w": 537, "ag`a": 538, "be`t": 539, "x`t</w>": 540, "f`ac": 541, "ch`ar": 542, "e`ar": 543, "w`al": 544, "s`en": 545, "f`am": 546, "b`le</w>": 547, "n`ati": 548, "is`h</w>": 549, "n`or": 550, "g`ame</w>": 551, "li`ve</w>": 552, "s`co": 553, "le`y</w>": 554, "d`on": 555, "ic`k</w>": 556, "b`all</w>": 557, "ver`y</w>": 558, "the`se</w>": 559, "p`an": 560, "i`a</w>": 561, "at`ing</w>": 562, "c`r": 563, "a`re": 564, "g`ir": 565, "ma`ke</w>": 566, "st`re": 567, "sho`w</w>": 568, ".`\"</w>": 569, "f`l": 570, "u`p": 571, "d`r": 572, "than`ks</w>": 573, "il`li": 574, "w`om": 575, "st`s</w>": 576, "i`g": 577, "s`ur": 578, "ever`y": 579, "c`ur": 580, "vie`w</w>": 581, "le`t</w>": 582, "in`to</w>": 583, "mo`st</w>": 584, "n`a": 585, "in`di": 586, "g`ar": 587, "ha`d</w>": 588, "s`ou": 589, "v`ed</w>": 590, "an`t": 591, "iti`on</w>": 592, "ma`de</w>": 593, "f`ol": 594, "un`i": 595, "it`ed</w>": 596, "\u00f0\u0141`\u0131": 597, "ic`al</w>": 598, "th`r": 599, "read`y</w>": 600, "ch`ec": 601, "d`ra": 602, "k`es</w>": 603, "boo`k</w>": 604, "e`p</w>": 605, "si`c</w>": 606, "mor`ning</w>": 607, "ne`ws</w>": 608, "c`au": 609, "c`t</w>": 610, "w`ell</w>": 611, "an`c": 612, "pho`to</w>": 613, "th`an</w>": 614, "or`s</w>": 615, "bir`th": 616, "g`g": 617, "ou`t": 618, "ne`xt</w>": 619, "som`e": 620, "en`ing</w>": 621, "stor`y</w>": 622, "ch`ri": 623, "do`wn</w>": 624, "hom`e</w>": 625, "f`fe": 626, "fre`e</w>": 627, "d`a</w>": 628, "b`or": 629, "f`il": 630, "ci`al</w>": 631, "than`k</w>": 632, "si`de</w>": 633, "le`ar": 634, "qu`e": 635, "l`ine</w>": 636, "t`en": 637, "at`es</w>": 638, "ye`ars</w>": 639, "m`y": 640, "pho`to": 641, "beau`ti": 642, "ri`ght</w>": 643, "n`u": 644, "for`m": 645, "shi`p</w>": 646, "b`an": 647, "th`er": 648, "d`ays</w>": 649, "g`am": 650, "as`on</w>": 651, "g`y</w>": 652, "\u00f0\u0141`\u0130": 653, "birth`day</w>": 654, "se`t</w>": 655, "ic`k": 656, "e`t": 657, "st`ill</w>": 658, "com`ing</w>": 659, "ta`ke</w>": 660, "\u00f0\u0141`\u0129": 661, "b`b": 662, "s`ol": 663, "s`on": 664, "d`en": 665, "e`p": 666, "mu`sic</w>": 667, "the`m</w>": 668, "de`n</w>": 669, "wh`y</w>": 670, "f`oo": 671, "c`ra": 672, "am`az": 673, "w`n": 674, "h`ol": 675, "t`ting</w>": 676, "w`r": 677, "u`e</w>": 678, "ma`g": 679, "c`ro": 680, "l`an": 681, "c`lo": 682, "b`ra": 683, "a`k</w>": 684, "s`ing</w>": 685, "c`al": 686, "re`ad</w>": 687, "'`ve</w>": 688, "jo`h": 689, "b`ab": 690, "d`ri": 691, "b`lo": 692, "bi`g</w>": 693, "er`ic": 694, "in`t</w>": 695, "t`or</w>": 696, "tr`y</w>": 697, "l`a</w>": 698, "le`g": 699, "hou`se</w>": 700, "m`ic": 701, "v`al": 702, "beauti`ful</w>": 703, "l`itt": 704, "chec`k</w>": 705, "ne`w": 706, "ver`s": 707, "s`w": 708, "ar`i": 709, "pla`y": 710, "h`er": 711, "\u00e2\u0122`\u0135</w>": 712, "w`in</w>": 713, "m`a</w>": 714, "con`gr": 715, "sch`ool</w>": 716, "f`un": 717, ".`@</w>": 718, "he`al": 719, "ic`h</w>": 720, "d`el": 721, "wh`ere</w>": 722, "l`on": 723, "ke`t</w>": 724, "tw`o</w>": 725, "mu`ch</w>": 726, "wat`ch</w>": 727, "v`en": 728, "d`ed</w>": 729, "a`st</w>": 730, "k`ed</w>": 731, "b`as": 732, "go`ing</w>": 733, "m`p</w>": 734, "e`ver</w>": 735, "w`ays</w>": 736, "ro`o": 737, "de`sig": 738, "l`y": 739, "s`ed</w>": 740, "to`p</w>": 741, "l`in": 742, "ch`an": 743, "to`o</w>": 744, "it`ing</w>": 745, "d`ent</w>": 746, "gh`ts</w>": 747, "t`y": 748, "sp`o": 749, "ne`ed</w>": 750, "b`lu": 751, "in`st": 752, "be`ing</w>": 753, "\u00e2\u013f`\u00a4": 754, "w`el": 755, "l`s</w>": 756, "hi`m</w>": 757, "m`ay</w>": 758, "st`ing</w>": 759, "n`a</w>": 760, "el`y</w>": 761, "litt`le</w>": 762, "g`a": 763, "n`at": 764, "tom`or": 765, "m`c": 766, "h`on": 767, "w`ant</w>": 768, "a`ir": 769, "pi`c</w>": 770, "am`eric": 771, "p`er</w>": 772, "le`ss</w>": 773, "wee`k": 774, "ve`l</w>": 775, "a`h</w>": 776, "c`ap": 777, "ch`am": 778, "g`er": 779, "ti`m": 780, "tomor`row</w>": 781, "ne`ss</w>": 782, "st`ate</w>": 783, "h`al": 784, "ser`v": 785, "z`e</w>": 786, "o`s</w>": 787, "p`at": 788, "v`is": 789, "ex`c": 790, "s`in": 791, "f`f</w>": 792, "c`ity</w>": 793, "c`en": 794, "an`y": 795, "b`el": 796, "su`mm": 797, "t`in": 798, "w`ould</w>": 799, "loo`king</w>": 800, "k`o": 801, "ce`le": 802, "fam`ily</w>": 803, "m`er": 804, "po`w": 805, "hel`p</w>": 806, "bu`s": 807, "c`o</w>": 808, "c`le": 809, "sel`f</w>": 810, "en`s</w>": 811, "ic`s</w>": 812, "th`o": 813, "an`i": 814, "ch`o": 815, "le`ad": 816, "b`s</w>": 817, "t`wee": 818, "th`ink</w>": 819, "for`e</w>": 820, "ch`il": 821, "vi`de": 822, "di`d</w>": 823, "al`e</w>": 824, "ch`i": 825, "v`il": 826, "en`ds</w>": 827, "w`ing</w>": 828, "p`as": 829, "'`ll</w>": 830, "v`ol": 831, "s`a</w>": 832, "g`s</w>": 833, "man`y</w>": 834, "j`ec": 835, "be`fore</w>": 836, "gra`ph": 837, "n`y</w>": 838, "ur`ing</w>": 839, "w`il": 840, "d`d": 841, "bu`il": 842, "f`av": 843, "st`ed</w>": 844, "tr`an": 845, "l`ing</w>": 846, "ou`d</w>": 847, "d`ge</w>": 848, "fi`el": 849, "nati`onal</w>": 850, "st`a": 851, "c`er": 852, "w`ere</w>": 853, "in`a</w>": 854, "se`ason</w>": 855, "c`ou": 856, "n`ed</w>": 857, "amaz`ing</w>": 858, "ti`ons</w>": 859, "cele`br": 860, "n`s</w>": 861, "a`th": 862, "he`ad</w>": 863, "s`day</w>": 864, "d`ar": 865, "lo`c": 866, "v`in": 867, "an`other</w>": 868, "g`oo": 869, "s`at": 870, "n`y": 871, "jo`in</w>": 872, "pre`s": 873, "s`es</w>": 874, "s`ing": 875, "an`a</w>": 876, "in`ing</w>": 877, "..`..</w>": 878, "c`our": 879, "\u00ef\u00b8`\u0131": 880, "ac`t</w>": 881, "cau`se</w>": 882, "li`ght</w>": 883, "am`s</w>": 884, "t`a</w>": 885, "b`al": 886, "f`c</w>": 887, "hi`gh</w>": 888, "off`ici": 889, "t`t</w>": 890, "chri`st": 891, "d`ic": 892, "d`ay": 893, "ra`l</w>": 894, "h`or": 895, ":`)</w>": 896, "vi`si": 897, "n`am": 898, "o`b": 899, "ma`s</w>": 900, "gh`t": 901, "re`ally</w>": 902, "t`un": 903, "fin`d</w>": 904, "thr`ough</w>": 905, "por`t</w>": 906, "u`t": 907, "ti`ve</w>": 908, "st`y": 909, "n`e</w>": 910, "or`e</w>": 911, "\u00f0\u0141\u013a`\u0124": 912, "supp`ort</w>": 913, "ne`ver</w>": 914, "ev`en</w>": 915, "\u00f0\u0141`\u0136": 916, "h`a</w>": 917, "y`a</w>": 918, "l`d": 919, "u`k</w>": 920, "r`an": 921, "j`am": 922, "wi`th": 923, "me`di": 924, "d`es</w>": 925, "ne`y</w>": 926, "ch`ing</w>": 927, "al`e": 928, "h`y": 929, "k`in": 930, "!`!": 931, "d`y": 932, "pl`ace</w>": 933, "al`so</w>": 934, "b`le": 935, "wh`ich</w>": 936, "bl`ack</w>": 937, "b`li": 938, "s`ay</w>": 939, "par`k</w>": 940, "pl`ay</w>": 941, "ir`e</w>": 942, "vide`o</w>": 943, "week`end</w>": 944, "a`il": 945, "ke`y</w>": 946, "p`t</w>": 947, "w`ard</w>": 948, "fri`day</w>": 949, "d`in": 950, "ine`ss</w>": 951, "g`ro": 952, "b`en": 953, "al`ways</w>": 954, "t`ball</w>": 955, "ag`o</w>": 956, "m`il": 957, "c`y": 958, "pro`duc": 959, "di`sc": 960, "un`der": 961, "ple`ase</w>": 962, "sp`or": 963, "fu`ll</w>": 964, "e`y</w>": 965, "\u00f0\u0141`\u013b": 966, "is`e</w>": 967, "iti`es</w>": 968, "c`at": 969, "k`no": 970, "u`se</w>": 971, "fo`re": 972, "k`er</w>": 973, "ar`t": 974, "hi`gh": 975, "op`en</w>": 976, "s`an": 977, "e`f": 978, "our`s</w>": 979, "sh`ed</w>": 980, "st`ri": 981, "d`ro": 982, "aga`in</w>": 983, "i`m</w>": 984, "\u00f0\u0141`\u0135": 985, "en`jo": 986, "fu`n</w>": 987, "ge`tting</w>": 988, "p`en": 989, "g`er</w>": 990, "c`li": 991, "an`y</w>": 992, "ever`y</w>": 993, "e`u": 994, "wom`en</w>": 995, "\u00e2`\u013e": 996, "e`st</w>": 997, "c`ould</w>": 998, "r`y": 999, "\"`@</w>": 1000, "th`ou": 1001, "sh`a": 1002, "comm`un": 1003, "b`er</w>": 1004, "d`ents</w>": 1005, "di`s": 1006, "wh`ile</w>": 1007, "aw`ay</w>": 1008, "di`o</w>": 1009, "h`am": 1010, "g`la": 1011, "d`ate</w>": 1012, "k`a</w>": 1013, "mis`s</w>": 1014, "un`ch</w>": 1015, "w`on": 1016, "in`f": 1017, "roo`m</w>": 1018, "g`a</w>": 1019, "re`al</w>": 1020, "ex`per": 1021, "di`rec": 1022, "sh`ould</w>": 1023, "sp`r": 1024, "g`ol": 1025, "l`ong</w>": 1026, "bet`ter</w>": 1027, "or`i": 1028, "e`y": 1029, "i`ence</w>": 1030, "il`s</w>": 1031, "z`z": 1032, "h`an": 1033, "f`ound</w>": 1034, "v`s</w>": 1035, "\u00e2`\u013b": 1036, "po`st</w>": 1037, "ti`c</w>": 1038, "par`t</w>": 1039, "m`en": 1040, "ren`ce</w>": 1041, "ce`ss</w>": 1042, "v`ic": 1043, "s`il": 1044, "sho`p</w>": 1045, "\u00f0\u0141\u013a`\u0124</w>": 1046, "f`ood</w>": 1047, "v`al</w>": 1048, "sti`c</w>": 1049, "y`ou": 1050, "s`ays</w>": 1051, "e`lec": 1052, "st`ar</w>": 1053, "o`c": 1054, "l`and": 1055, "i`d": 1056, "c`tion</w>": 1057, "fiel`d</w>": 1058, "s`of": 1059, "st`art</w>": 1060, "wat`er</w>": 1061, "fri`ends</w>": 1062, "on`es</w>": 1063, "\u00f0\u0141`\u012e": 1064, "f`la": 1065, "f`ar": 1066, "wh`ite</w>": 1067, "par`ty</w>": 1068, "in`st</w>": 1069, "gr`ou": 1070, "t`v</w>": 1071, "every`one</w>": 1072, "m`ent": 1073, "j`a": 1074, "ch`a": 1075, "pr`in": 1076, "an`ts</w>": 1077, "d`uring</w>": 1078, "l`at": 1079, "l`ar": 1080, "we`st</w>": 1081, "th`en</w>": 1082, "k`a": 1083, "y`oun": 1084, "in`sp": 1085, "in`te": 1086, "we`en</w>": 1087, "visi`t</w>": 1088, "aga`inst</w>": 1089, "re`le": 1090, "he`ad": 1091, "c`es</w>": 1092, "to`wn</w>": 1093, "loo`ks</w>": 1094, "th`re": 1095, "re`gi": 1096, "ren`t</w>": 1097, "pro`jec": 1098, "gir`l</w>": 1099, "se`ar": 1100, "w`o": 1101, "m`om": 1102, "c`ar</w>": 1103, "h`un": 1104, "pu`bli": 1105, "d`i</w>": 1106, "p`le</w>": 1107, "c`all</w>": 1108, "c`ri": 1109, "u`m": 1110, "for`d</w>": 1111, "per`fe": 1112, "fri`end</w>": 1113, "h`ard</w>": 1114, "ssi`on</w>": 1115, "te`st</w>": 1116, "pla`ying</w>": 1117, "ar`ound</w>": 1118, "be`cause</w>": 1119, "ke`ts</w>": 1120, "me`et</w>": 1121, "sat`ur": 1122, "ar`ti": 1123, "wor`k": 1124, "j`un": 1125, "v`en</w>": 1126, "r`un": 1127, "me`mber</w>": 1128, "por`t": 1129, "su`per": 1130, "t`wit": 1131, "s`am": 1132, "el`s</w>": 1133, "t`ly</w>": 1134, "ad`v": 1135, "ati`ve</w>": 1136, "at`h</w>": 1137, "s`ure</w>": 1138, "av`ail": 1139, "la`r</w>": 1140, "s`qu": 1141, "ar`ds</w>": 1142, "ev`ent</w>": 1143, "m`en</w>": 1144, "l`l": 1145, "o`ver": 1146, "lo`gy</w>": 1147, "it`al</w>": 1148, "tim`es</w>": 1149, "m`al": 1150, "b`ack": 1151, "c`oo": 1152, "ma`king</w>": 1153, "st`ru": 1154, "\u00e2`\u0123": 1155, "it`u": 1156, "sh`ar": 1157, "g`an</w>": 1158, "c`as": 1159, "s`n": 1160, "summ`er</w>": 1161, "pic`ture</w>": 1162, "f`an": 1163, "h`in": 1164, "christ`mas</w>": 1165, "c`y</w>": 1166, "pr`oud</w>": 1167, "cham`pi": 1168, "desig`n</w>": 1169, "pp`ing</w>": 1170, "ho`pe</w>": 1171, "c`a</w>": 1172, "avail`able</w>": 1173, "ma`y": 1174, "we`d": 1175, "photo`graph": 1176, "spe`cial</w>": 1177, "sal`e</w>": 1178, "sto`p</w>": 1179, "er`y</w>": 1180, "a`we": 1181, "al`ity</w>": 1182, "hi`story</w>": 1183, "am`a</w>": 1184, "pre`si": 1185, "b`ru": 1186, "wor`king</w>": 1187, "d`one</w>": 1188, "d`r</w>": 1189, "k`en</w>": 1190, "fe`at": 1191, "w`ood</w>": 1192, "ate`st</w>": 1193, "sun`day</w>": 1194, "mo`vi": 1195, "vel`y</w>": 1196, "s`le": 1197, "f`ace</w>": 1198, "sp`ec": 1199, "stu`dents</w>": 1200, "b`y": 1201, "ha`m</w>": 1202, "sp`on": 1203, "bus`iness</w>": 1204, "d`at": 1205, "i`e</w>": 1206, "i`p": 1207, "so`ci": 1208, "g`lo": 1209, "h`and": 1210, "re`cor": 1211, "r`s</w>": 1212, "me`e": 1213, "ke`ep</w>": 1214, "p`ur": 1215, "heal`th</w>": 1216, "sh`e": 1217, "com`ple": 1218, "go`d</w>": 1219, "da`vi": 1220, "col`lec": 1221, "li`st": 1222, "r`a</w>": 1223, "clu`b</w>": 1224, "t`ers</w>": 1225, "in`clu": 1226, "th`ings</w>": 1227, "pl`an": 1228, "\u00e2`\u013a": 1229, "joh`n</w>": 1230, "sh`ing</w>": 1231, "at`ul": 1232, "so`on</w>": 1233, "blu`e</w>": 1234, "g`or": 1235, "satur`day</w>": 1236, "w`on</w>": 1237, "congr`atul": 1238, "se`e": 1239, "\u00e2\u013f\u00a4`\u00ef\u00b8\u0131</w>": 1240, "tho`se</w>": 1241, "\u00f0\u0141\u013a`\u012f</w>": 1242, "fin`al</w>": 1243, "d`ou": 1244, "it`h</w>": 1245, "o`wn</w>": 1246, "ro`ad</w>": 1247, "t`our</w>": 1248, "a`st": 1249, "indi`a</w>": 1250, "ti`l</w>": 1251, "n`d</w>": 1252, "f`er": 1253, "fav`or": 1254, "su`l": 1255, "lear`n</w>": 1256, "fir`e</w>": 1257, "ju`st": 1258, "grou`p</w>": 1259, "a`h": 1260, "r`ac": 1261, "bo`dy</w>": 1262, "u`r</w>": 1263, "c`are</w>": 1264, "\u00e0`\u00b8": 1265, "p`lo": 1266, "o`h</w>": 1267, "po`s": 1268, "gi`ve</w>": 1269, "te`ch": 1270, "su`b": 1271, "c`ent": 1272, "er`ing</w>": 1273, "y`m": 1274, "il`ity</w>": 1275, "f`ic": 1276, "lon`don</w>": 1277, "v`ir": 1278, "gu`ys</w>": 1279, "b`a</w>": 1280, "\u00f0\u0141`\u00a4": 1281, "bab`y</w>": 1282, "sc`re": 1283, "\u00f0\u0141\u013a`\u012f": 1284, "tru`mp</w>": 1285, "un`der</w>": 1286, "chan`ge</w>": 1287, "i`an</w>": 1288, "col`le": 1289, "ss`es</w>": 1290, "l`er</w>": 1291, "ss`ed</w>": 1292, "n`ice</w>": 1293, "ann`oun": 1294, "pow`er</w>": 1295, "s`ar": 1296, "a`king</w>": 1297, "min`i": 1298, "s`li": 1299, "s`wee": 1300, "k`ar": 1301, "fu`l": 1302, "c`ru": 1303, "ac`tion</w>": 1304, "a`ther</w>": 1305, ")`.</w>": 1306, "st`and": 1307, "de`vel": 1308, "a`a": 1309, "g`an": 1310, "le`ft</w>": 1311, "lo`l</w>": 1312, "re`l": 1313, "tran`s": 1314, "m`ents</w>": 1315, "in`t": 1316, "e`f</w>": 1317, "man`ag": 1318, "di`g": 1319, "gen`er": 1320, "do`wn": 1321, "p`au": 1322, "ti`v": 1323, "k`u": 1324, "th`ur": 1325, "k`en": 1326, "st`on</w>": 1327, "f`ans</w>": 1328, "tal`k</w>": 1329, "twee`t</w>": 1330, "t`oo": 1331, "sty`le</w>": 1332, "pro`te": 1333, "se`con": 1334, "fr`on": 1335, "awe`some</w>": 1336, "g`l": 1337, "p`al": 1338, "ne`t": 1339, "s`or": 1340, "la`u": 1341, "g`on": 1342, "sin`ce</w>": 1343, "t`ty</w>": 1344, "ser`ies</w>": 1345, "me`mor": 1346, "b`eli": 1347, "fil`m</w>": 1348, "di`d": 1349, "di`es</w>": 1350, "o`t": 1351, "congratul`ations</w>": 1352, "p`ra": 1353, "e`ve</w>": 1354, "w`oo": 1355, "offici`al</w>": 1356, "su`c": 1357, "in`cre": 1358, "b`on": 1359, "par`t": 1360, "pp`ed</w>": 1361, "cla`ss</w>": 1362, "si`ve</w>": 1363, "bo`y</w>": 1364, "cu`l": 1365, "perfe`ct</w>": 1366, "t`ou": 1367, "d`am": 1368, "wel`come</w>": 1369, "foo`tball</w>": 1370, "h`i</w>": 1371, "p`ap": 1372, "wa`it</w>": 1373, "ad`a</w>": 1374, "congr`ats</w>": 1375, "youn`g</w>": 1376, "exc`ited</w>": 1377, "re`ce": 1378, "j`an": 1379, "v`a</w>": 1380, "re`d": 1381, "st`ra": 1382, "medi`a</w>": 1383, "'`d</w>": 1384, "do`es</w>": 1385, "le`t": 1386, "mu`l": 1387, "ill`s</w>": 1388, "gre`en</w>": 1389, "m`el": 1390, "to`ge": 1391, "fu`ture</w>": 1392, "ye`ster": 1393, "vers`ity</w>": 1394, "for`m</w>": 1395, "ta`in</w>": 1396, "i`de": 1397, "ch`es</w>": 1398, "ki`ds</w>": 1399, "qu`i": 1400, "ha`ha": 1401, "de`ta": 1402, "bi`g": 1403, "favor`ite</w>": 1404, "gir`ls</w>": 1405, "con`tin": 1406, "do`m</w>": 1407, "sear`ch</w>": 1408, "u`al</w>": 1409, "a`ir</w>": 1410, "d`ers</w>": 1411, "mon`th</w>": 1412, "c`er</w>": 1413, "yester`day</w>": 1414, "commun`ity</w>": 1415, "ad`e</w>": 1416, "do`g</w>": 1417, "vil`le</w>": 1418, "ic`es</w>": 1419, "d`eli": 1420, "sy`ste": 1421, "ru`n</w>": 1422, "is`m</w>": 1423, "he`art</w>": 1424, "c`up</w>": 1425, "en`ti": 1426, "fe`w</w>": 1427, "presi`dent</w>": 1428, "e`ds</w>": 1429, "un`til</w>": 1430, "fe`sti": 1431, "o`k": 1432, "f`lo": 1433, "sa`id</w>": 1434, "ol`e</w>": 1435, "me`d": 1436, "tra`vel</w>": 1437, "\u00c2`\u00a3</w>": 1438, "ph`one</w>": 1439, "toge`ther</w>": 1440, "fa`st</w>": 1441, "lo`t</w>": 1442, "gam`es</w>": 1443, "sh`ir": 1444, "bet`ween</w>": 1445, "y`es</w>": 1446, "th`ers</w>": 1447, "do`ing</w>": 1448, "m`ac": 1449, "at`or</w>": 1450, "b`and</w>": 1451, "fol`low": 1452, "projec`t</w>": 1453, "devel`op": 1454, "di`ffe": 1455, "con`fe": 1456, "spe`ci": 1457, "ca`st</w>": 1458, "y`s": 1459, "bo`ard</w>": 1460, "r`d</w>": 1461, "i`al</w>": 1462, "sh`oo": 1463, "r`am": 1464, "ha`ving</w>": 1465, "sh`are</w>": 1466, "fol`low</w>": 1467, "on`e": 1468, "n`ame</w>": 1469, "m`r</w>": 1470, "pu`t</w>": 1471, "disc`u": 1472, "or`y</w>": 1473, "c`ame</w>": 1474, "ou`s": 1475, "s`ite</w>": 1476, "twit`ter</w>": 1477, "t`b": 1478, "t`it": 1479, "fin`ally</w>": 1480, "z`ed</w>": 1481, "su`per</w>": 1482, "com`pan": 1483, "us`ing</w>": 1484, "all`s</w>": 1485, "li`st</w>": 1486, "r`is</w>": 1487, "sho`t</w>": 1488, "g`al": 1489, "t`ar": 1490, "de`l</w>": 1491, "joh`n": 1492, "\u00e2\u0122`\u0136</w>": 1493, "some`thing</w>": 1494, "ra`m</w>": 1495, "inte`re": 1496, "wh`e": 1497, "b`it</w>": 1498, "\u00f0\u0141`\u012f": 1499, "stre`et</w>": 1500, "oun`d": 1501, "a`i": 1502, "tic`kets</w>": 1503, "movi`e</w>": 1504, "re`al": 1505, "k`y": 1506, "ta`king</w>": 1507, "o`pp": 1508, "c`c</w>": 1509, "l`am": 1510, "m`oun": 1511, "in`ve": 1512, "bl`ack": 1513, "us`ed</w>": 1514, "on`line</w>": 1515, "y`or": 1516, "loc`al</w>": 1517, "gu`e": 1518, "c`ks</w>": 1519, "o`w": 1520, "ge`st</w>": 1521, "bo`ys</w>": 1522, "illi`on</w>": 1523, "con`t": 1524, "re`ci": 1525, "in`ed</w>": 1526, "eu`ro": 1527, "no`w": 1528, "se`en</w>": 1529, "p`h</w>": 1530, "te`ach": 1531, "de`f": 1532, "sou`th</w>": 1533, "su`ch</w>": 1534, "aw`ard</w>": 1535, "mu`st</w>": 1536, "is`su": 1537, "ca`re": 1538, "fe`el</w>": 1539, "p`lu": 1540, "l`atest</w>": 1541, "spor`ts</w>": 1542, "we`b": 1543, "te`x": 1544, "e`ment</w>": 1545, "s`k</w>": 1546, "fi`c</w>": 1547, "w`an": 1548, "te`ch</w>": 1549, "o`t</w>": 1550, "bo`x</w>": 1551, "n`er": 1552, "fre`e": 1553, "t`al</w>": 1554, "a`sh": 1555, "c`ase</w>": 1556, "ho`t</w>": 1557, "won`der": 1558, "mee`ting</w>": 1559, "er`a</w>": 1560, "ch`all": 1561, "\u00f0\u0141`\u0132": 1562, "jo`b</w>": 1563, "il`i": 1564, "c`ool</w>": 1565, "j`our": 1566, "th`s</w>": 1567, "m`o</w>": 1568, "f`el": 1569, "di`e</w>": 1570, "mic`ha": 1571, "e`le": 1572, "te`am": 1573, "serv`ice</w>": 1574, "st`and</w>": 1575, "ma`kes</w>": 1576, "p`ing</w>": 1577, "ear`ly</w>": 1578, "com`es</w>": 1579, "e`k</w>": 1580, "ho`li": 1581, "v`ers</w>": 1582, "ag`ue</w>": 1583, "s`au": 1584, "thre`e</w>": 1585, "mon`day</w>": 1586, "fa`shi": 1587, "some`one</w>": 1588, "th`ro": 1589, "se`a</w>": 1590, "b`ad</w>": 1591, "supp`or": 1592, "tur`n</w>": 1593, "ur`y</w>": 1594, "m`ing</w>": 1595, "photograph`y</w>": 1596, "n`ic": 1597, "mar`k</w>": 1598, "pre`tty</w>": 1599, "ss`ing</w>": 1600, "wat`ching</w>": 1601, "me`mb": 1602, "ar`ri": 1603, "coun`ty</w>": 1604, "be`ach</w>": 1605, "fr`an": 1606, "cen`ter</w>": 1607, "pol`ice</w>": 1608, "b`at": 1609, "publi`c</w>": 1610, "t`an": 1611, "pre`ss</w>": 1612, "s`af": 1613, "s`y</w>": 1614, "ge`ts</w>": 1615, "ro`y": 1616, "n`ers</w>": 1617, "y`our": 1618, "bu`y</w>": 1619, "st`ers</w>": 1620, "sho`w": 1621, "as`ed</w>": 1622, "chil`dre": 1623, "af`ric": 1624, "in`es</w>": 1625, "sp`ace</w>": 1626, "sc`ri": 1627, "h`all</w>": 1628, "pa`in": 1629, "ar`ing</w>": 1630, "hom`e": 1631, "m`ur": 1632, "heal`th": 1633, "ch`ed</w>": 1634, "s`and": 1635, "rece`i": 1636, "gu`y</w>": 1637, "e`a": 1638, "americ`an</w>": 1639, "re`si": 1640, "childre`n</w>": 1641, "-`-": 1642, "i`ri": 1643, "ing`ton</w>": 1644, "coun`try</w>": 1645, "ro`ss</w>": 1646, "le`n</w>": 1647, "ann`a</w>": 1648, "boo`ks</w>": 1649, "b`c</w>": 1650, "e`ce</w>": 1651, "d`om": 1652, "lo`vely</w>": 1653, "k`h": 1654, "pe`t": 1655, "g`y": 1656, "g`ri": 1657, "st`age</w>": 1658, "off`ice</w>": 1659, "ro`ck</w>": 1660, "m`on</w>": 1661, "b`ay</w>": 1662, "t`able</w>": 1663, "su`n</w>": 1664, "m`ed</w>": 1665, "th`in": 1666, "l`or": 1667, "f`low": 1668, "(`@</w>": 1669, "uni`versity</w>": 1670, "stor`e</w>": 1671, "fron`t</w>": 1672, "goo`d": 1673, "z`a</w>": 1674, "vo`te</w>": 1675, "nor`th</w>": 1676, "he`y</w>": 1677, "an`im": 1678, "or`der</w>": 1679, "mi`d": 1680, "with`out</w>": 1681, "a`de": 1682, "re`member</w>": 1683, "mar`ket</w>": 1684, "?`?</w>": 1685, "mu`s": 1686, "tra`ining</w>": 1687, "e`duc": 1688, "bu`t": 1689, "co`ver</w>": 1690, "st`an": 1691, "sc`en": 1692, "b`la": 1693, "bre`ak": 1694, "l`ou": 1695, "s`ame</w>": 1696, "g`old</w>": 1697, "a`in</w>": 1698, "o`s": 1699, "bo`th</w>": 1700, "l`it": 1701, "ver`n": 1702, "a`i</w>": 1703, "al`bu": 1704, "p`a</w>": 1705, "enjo`y</w>": 1706, "be`g": 1707, "ell`ing</w>": 1708, "thur`sday</w>": 1709, "inf`o</w>": 1710, "s`an</w>": 1711, "americ`a</w>": 1712, "ha`ir</w>": 1713, "te`l</w>": 1714, "mar`ch</w>": 1715, "con`cer": 1716, "colle`ge</w>": 1717, "confe`rence</w>": 1718, "ap`p</w>": 1719, "h`our</w>": 1720, "ch`ang": 1721, "\u00e2`\u013c": 1722, "s`our": 1723, "ol`s</w>": 1724, "we`ather</w>": 1725, "w`ar</w>": 1726, "p`hi": 1727, "festi`val</w>": 1728, "secon`d</w>": 1729, "cu`te</w>": 1730, "pr`ac": 1731, "en`er": 1732, "str`y</w>": 1733, "le`a": 1734, "pol`it": 1735, "s`av": 1736, "se`n</w>": 1737, "o`w</w>": 1738, "m`i</w>": 1739, "ne`ar</w>": 1740, "ou`ght</w>": 1741, "z`e": 1742, "co`ffe": 1743, "w`illi": 1744, "d`an": 1745, "se`y</w>": 1746, "davi`d</w>": 1747, "e`se</w>": 1748, "f`an</w>": 1749, "de`ci": 1750, "the`at": 1751, "no`v": 1752, "ati`on": 1753, "tr`ac": 1754, "sc`i": 1755, "re`view</w>": 1756, "c`el": 1757, "e`m</w>": 1758, "u`n</w>": 1759, "ju`ly</w>": 1760, "or`ig": 1761, "ti`on": 1762, "d`ru": 1763, "form`er</w>": 1764, "st`ay</w>": 1765, "af`ter": 1766, "in`v": 1767, "too`k</w>": 1768, "dat`a</w>": 1769, "b`al</w>": 1770, "tu`es": 1771, "d`an</w>": 1772, "ev`ening</w>": 1773, "\u00f0\u0141\u013a\u0124`\u00f0\u0141\u013a\u0124": 1774, "d`ol": 1775, "u`res</w>": 1776, "pro`vi": 1777, "t`s": 1778, "e`st": 1779, "sig`n</w>": 1780, "j`ac": 1781, "u`k": 1782, "s`ong</w>": 1783, "ye`t</w>": 1784, "bo`w": 1785, "in`du": 1786, "j`ap": 1787, "h`oo": 1788, "po`int</w>": 1789, "any`one</w>": 1790, "z`y</w>": 1791, "i`st</w>": 1792, "h`ur": 1793, "it`al": 1794, "buil`ding</w>": 1795, "wom`an</w>": 1796, "ch`ur": 1797, "j`er": 1798, "per`for": 1799, "co`ach</w>": 1800, "le`ague</w>": 1801, "ce`ss": 1802, "ne`t</w>": 1803, "i`mag": 1804, "nati`on": 1805, "br`it": 1806, "qu`e</w>": 1807, "aw`ards</w>": 1808, "ag`es</w>": 1809, "wor`ks</w>": 1810, "c`ed</w>": 1811, "man`ce</w>": 1812, "l`ate</w>": 1813, "ig`n</w>": 1814, "mon`ey</w>": 1815, "tru`e</w>": 1816, "i`i</w>": 1817, "t`ell</w>": 1818, "pl`ac": 1819, "p`ac": 1820, "as`y</w>": 1821, "wor`ld": 1822, "be`hin": 1823, "im`port": 1824, "read`ing</w>": 1825, "gra`m</w>": 1826, "gi`ving</w>": 1827, "me`t</w>": 1828, "h`it</w>": 1829, "for`ward</w>": 1830, "st`om": 1831, "pres`ent": 1832, "jun`e</w>": 1833, "so`cial</w>": 1834, "no`on</w>": 1835, "mar`t": 1836, "hal`f</w>": 1837, "s`we": 1838, "go`vern": 1839, "k`er": 1840, "deta`ils</w>": 1841, "li`sh</w>": 1842, "_`_": 1843, "ac`y</w>": 1844, "si`a</w>": 1845, "ber`t</w>": 1846, "f`all</w>": 1847, "!`!!!</w>": 1848, ")`,</w>": 1849, "th`i": 1850, "d`iti": 1851, "sp`ort</w>": 1852, "k`ing": 1853, "f`it": 1854, "st`af": 1855, "c`at</w>": 1856, "mu`se": 1857, "cen`tr": 1858, "y`er</w>": 1859, "con`tro": 1860, "b`loo": 1861, "wal`k</w>": 1862, "ac`tu": 1863, "did`n</w>": 1864, "li`m": 1865, "lear`ning</w>": 1866, "re`search</w>": 1867, "wed`ne": 1868, "au`th": 1869, "h`ours</w>": 1870, "k`y</w>": 1871, "f`ar</w>": 1872, "h`en": 1873, "..`..": 1874, "it`ch": 1875, "ri`l</w>": 1876, "str`ong</w>": 1877, "sk`y</w>": 1878, "que`sti": 1879, "jam`es</w>": 1880, "r`on": 1881, "d`g": 1882, "f`ur": 1883, "c`in": 1884, "do`es": 1885, "app`ro": 1886, "mar`ke": 1887, "tu`res</w>": 1888, "ful`ly</w>": 1889, "ch`at</w>": 1890, "behin`d</w>": 1891, "te`m": 1892, "fin`i": 1893, "mis`sion</w>": 1894, "b`att": 1895, "fe`el": 1896, "he`av": 1897, "every`thing</w>": 1898, "b`ar</w>": 1899, "w`ish</w>": 1900, "pre`mi": 1901, "i`ma": 1902, "exper`ience</w>": 1903, "e`ach</w>": 1904, "re`port</w>": 1905, "swee`t</w>": 1906, "tic`s</w>": 1907, "spr`ing</w>": 1908, "re`spon": 1909, "syste`m</w>": 1910, "vic`tor": 1911, "l`in</w>": 1912, "sa`w</w>": 1913, "al`ready</w>": 1914, "gh`ter</w>": 1915, "f`le": 1916, "\u00e3`\u0125": 1917, "br`ing</w>": 1918, "albu`m</w>": 1919, "-`-</w>": 1920, "ell`s</w>": 1921, "st`an</w>": 1922, "to`m</w>": 1923, "inter`national</w>": 1924, "w`ent</w>": 1925, "an`ni": 1926, "mat`ch</w>": 1927, "pp`er</w>": 1928, "st`one</w>": 1929, "sm`all</w>": 1930, "ra`in</w>": 1931, "fashi`on</w>": 1932, "are`a</w>": 1933, "v`an": 1934, "ag`ram</w>": 1935, "k`o</w>": 1936, "thou`ght</w>": 1937, "wor`th</w>": 1938, "v`an</w>": 1939, "m`er</w>": 1940, "coffe`e</w>": 1941, "it`es</w>": 1942, "g`n": 1943, "arti`st</w>": 1944, "c`on</w>": 1945, "ar`ch": 1946, "c`ir": 1947, "se`cre": 1948, "gr`ound</w>": 1949, "is`o": 1950, "h`and</w>": 1951, "co`m</w>": 1952, "bri`dge</w>": 1953, "h`s</w>": 1954, "x`i": 1955, "l`ink</w>": 1956, "pu`l": 1957, "sp`l": 1958, "r`ace</w>": 1959, "f`li": 1960, "ri`ver</w>": 1961, "g`as</w>": 1962, "di`sco": 1963, "d`al": 1964, "play`er</w>": 1965, "f`it</w>": 1966, "photo`s</w>": 1967, "it`y": 1968, "o`k</w>": 1969, "j`or": 1970, "tr`a</w>": 1971, "ap`ril</w>": 1972, "ad`s</w>": 1973, "a`di": 1974, "sol`u": 1975, "beau`ty</w>": 1976, "do`or</w>": 1977, "me`ss": 1978, "up`date</w>": 1979, "ali`a</w>": 1980, "sch`o": 1981, "en`ed</w>": 1982, "mom`ent</w>": 1983, "sco`t": 1984, "sc`ience</w>": 1985, "i`or</w>": 1986, "ti`es</w>": 1987, "ac`ross</w>": 1988, "ous`ly</w>": 1989, "sh`es</w>": 1990, "does`n</w>": 1991, "p`age</w>": 1992, "wat`er": 1993, "m`illion</w>": 1994, "cla`ssi": 1995, "l`ic": 1996, "ca`st": 1997, "form`ation</w>": 1998, "micha`el</w>": 1999, "ell`o</w>": 2000, "s`mo": 2001, "in`ts</w>": 2002, "vi`sion</w>": 2003, "op`ening</w>": 2004, "ld`n</w>": 2005, "au`str": 2006, "tues`day</w>": 2007, "win`ner</w>": 2008, "po`ssi": 2009, "r`ound</w>": 2010, "shir`t</w>": 2011, "di`t</w>": 2012, "b`o</w>": 2013, "u`es</w>": 2014, "il`led</w>": 2015, "al`ong</w>": 2016, "tri`p</w>": 2017, "star`ting</w>": 2018, "im`pro": 2019, "k`an": 2020, "per`son</w>": 2021, "no`t": 2022, "re`co": 2023, "ne`eds</w>": 2024, "c`le</w>": 2025, "li`e</w>": 2026, "re`st</w>": 2027, "r`ing</w>": 2028, "win`ter</w>": 2029, "si`mp": 2030, "mo`m</w>": 2031, "be`er</w>": 2032, "fac`e": 2033, "tor`s</w>": 2034, "us`a</w>": 2035, "collec`tion</w>": 2036, "ge`or": 2037, "se`ssion</w>": 2038, "tr`ying</w>": 2039, "la`s</w>": 2040, "la`ke</w>": 2041, "j`en": 2042, "orig`in": 2043, "stu`dent</w>": 2044, "se`cur": 2045, "v`in</w>": 2046, "pic`s</w>": 2047, "ex`pe": 2048, "com`p": 2049, "gon`na</w>": 2050, "e`qu": 2051, "b`ad": 2052, "le`y": 2053, "a`u</w>": 2054, "memb`ers</w>": 2055, "bre`ak</w>": 2056, "w`all</w>": 2057, "gi`c</w>": 2058, "din`ner</w>": 2059, "bu`l": 2060, "insp`ir": 2061, "r`i</w>": 2062, "min`d</w>": 2063, "ic`a</w>": 2064, "win`ning</w>": 2065, "tal`king</w>": 2066, "t`ren": 2067, "s`is</w>": 2068, "t`en</w>": 2069, "wonder`ful</w>": 2070, "s`now</w>": 2071, "he`ar</w>": 2072, "th`om": 2073, "no`thing</w>": 2074, "gu`i": 2075, "st`in": 2076, "blo`g</w>": 2077, "fe`st</w>": 2078, "b`un": 2079, "le`e</w>": 2080, "war`ds</w>": 2081, "ch`ance</w>": 2082, "dre`ss</w>": 2083, "re`n</w>": 2084, "pau`l</w>": 2085, "p`es</w>": 2086, "tech`no": 2087, "ru`ssi": 2088, "c`ard</w>": 2089, "e`ast</w>": 2090, "mar`i": 2091, "w`ine</w>": 2092, "t`i</w>": 2093, "la`w</w>": 2094, "str`ic": 2095, "k`i</w>": 2096, "ap`e</w>": 2097, "au`gu": 2098, "pro`fe": 2099, "as`h</w>": 2100, "cour`se</w>": 2101, "ma`il</w>": 2102, "ren`tly</w>": 2103, "d`un": 2104, "m`un": 2105, "lo`ve": 2106, "is`land</w>": 2107, "dri`ve</w>": 2108, "s`l": 2109, "end`ed</w>": 2110, "ma`in</w>": 2111, "lo`st</w>": 2112, "nat`ure</w>": 2113, "\u00e2\u013f\u00a4`\u00ef\u00b8\u0131": 2114, "ch`ic": 2115, "re`por": 2116, "p`in": 2117, "pr`o</w>": 2118, "st`ation</w>": 2119, "ce`p": 2120, "ta`kes</w>": 2121, "compan`y</w>": 2122, "go`es</w>": 2123, "on`d</w>": 2124, "ma`ch": 2125, "ra`dio</w>": 2126, "d`ad</w>": 2127, "ro`ck": 2128, "j`a</w>": 2129, "p`ay": 2130, "champi`on": 2131, "e`e": 2132, "in`de": 2133, "tt`a</w>": 2134, "ati`c</w>": 2135, "t`ab": 2136, "beli`eve</w>": 2137, "ener`gy</w>": 2138, "z`i": 2139, "t`at": 2140, "wor`d</w>": 2141, "on`ce</w>": 2142, "re`sul": 2143, "y`l": 2144, "and`re": 2145, "an`o</w>": 2146, "inst`agram</w>": 2147, "clo`se</w>": 2148, "t`am": 2149, "cu`stom": 2150, "w`a</w>": 2151, "con`om": 2152, "sho`ws</w>": 2153, "li`fe": 2154, "k`in</w>": 2155, "ro`b": 2156, "t`age</w>": 2157, "n`ation</w>": 2158, "al`most</w>": 2159, "list`en</w>": 2160, "sa`ve</w>": 2161, "re`li": 2162, "ac`e": 2163, "mar`y</w>": 2164, "tre`e</w>": 2165, "for`get</w>": 2166, "j`ack": 2167, "wa`iting</w>": 2168, "direc`tor</w>": 2169, "h`ill</w>": 2170, "bor`n</w>": 2171, "te`mp": 2172, "f`l</w>": 2173, "st`e</w>": 2174, "on`a</w>": 2175, "sing`le</w>": 2176, "wedne`sday</w>": 2177, "un`ited</w>": 2178, "in`o</w>": 2179, "@`_</w>": 2180, "ne`l</w>": 2181, "celebr`ate</w>": 2182, "en`ding</w>": 2183, "de`al</w>": 2184, "j`i</w>": 2185, "can`ada</w>": 2186, "hu`ge</w>": 2187, "tr`ack</w>": 2188, "\u00e2\u0122`\u00a2</w>": 2189, "f`y</w>": 2190, "fan`ta": 2191, "an`g</w>": 2192, "yor`k</w>": 2193, "rele`ase</w>": 2194, "p`un": 2195, "ep`iso": 2196, "wor`ds</w>": 2197, "t`our": 2198, "p`ack": 2199, "i`gh": 2200, "classi`c</w>": 2201, "perfor`mance</w>": 2202, "ke`t": 2203, "after`noon</w>": 2204, "recor`d</w>": 2205, "win`s</w>": 2206, "pro`ble": 2207, "\u00e2\u013f`\u00a4</w>": 2208, "f`our</w>": 2209, "b`ed</w>": 2210, "ban`k</w>": 2211, "d`ance</w>": 2212, "s`la": 2213, "cal`led</w>": 2214, "mi`ght</w>": 2215, "a`p</w>": 2216, "pa`st</w>": 2217, "\u00f0\u0141`\u013c": 2218, "diffe`rent</w>": 2219, "it`e": 2220, "gi`ft</w>": 2221, "ssi`ve</w>": 2222, "chur`ch</w>": 2223, "c`us</w>": 2224, "pro`gram</w>": 2225, "ho`tel</w>": 2226, "ic`e": 2227, "ma`d": 2228, "secur`ity</w>": 2229, "en`ge</w>": 2230, "d`c</w>": 2231, "en`ough</w>": 2232, "st`a</w>": 2233, "e`ty</w>": 2234, "de`ad</w>": 2235, "g`un": 2236, "he`ar": 2237, "m`ir": 2238, "hu`man</w>": 2239, "gre`ss</w>": 2240, "oun`ds</w>": 2241, "pi`ece</w>": 2242, "bre`aking</w>": 2243, "gar`den</w>": 2244, "fi`ght</w>": 2245, "vie`ws</w>": 2246, "f`ish</w>": 2247, "star`ted</w>": 2248, "run`ning</w>": 2249, "gre`en": 2250, "ser`i": 2251, "s`m</w>": 2252, "as`k</w>": 2253, "d`or": 2254, "de`ath</w>": 2255, "e`conom": 2256, "er`i": 2257, "ir`d</w>": 2258, "s`er</w>": 2259, "l`unch</w>": 2260, "\u00e2\u0123`\u00a6": 2261, "bo`x": 2262, "nat`u": 2263, "ba`se": 2264, "b`an</w>": 2265, "f`al": 2266, "glo`bal</w>": 2267, "wil`d": 2268, "wo`w</w>": 2269, "out`side</w>": 2270, "mo`ve</w>": 2271, "le`ad</w>": 2272, "an`al": 2273, "muse`um</w>": 2274, "on`g": 2275, "ha`w": 2276, "pow`er": 2277, "than`k": 2278, "b`ac": 2279, "char`ac": 2280, "cam`pa": 2281, "dig`ital</w>": 2282, "r`o</w>": 2283, "op`er": 2284, "de`v": 2285, "w`ol": 2286, "p`ati": 2287, "f`a</w>": 2288, "m`ale</w>": 2289, "pap`er</w>": 2290, "ill`ing</w>": 2291, "c`s</w>": 2292, "\u00e2`\u0125": 2293, "educ`ation</w>": 2294, "ta`ken</w>": 2295, "e`ffe": 2296, "m`ou": 2297, "s`ad": 2298, "\"`.</w>": 2299, "bas`ed</w>": 2300, "staf`f</w>": 2301, "inclu`ding</w>": 2302, "li`ving</w>": 2303, "a`c</w>": 2304, "ch`ina</w>": 2305, "mo`b": 2306, "stor`m</w>": 2307, "lu`ck</w>": 2308, "ph`il": 2309, "o`o</w>": 2310, "y`n": 2311, "tra`vel": 2312, "k`el": 2313, "ti`al</w>": 2314, "pr`ice</w>": 2315, "boo`k": 2316, "import`ant</w>": 2317, "bi`o": 2318, "p`ool</w>": 2319, "ny`c</w>": 2320, "f`ab": 2321, "lo`ad</w>": 2322, "?`!</w>": 2323, "chall`enge</w>": 2324, "cr`y": 2325, "ser`ve</w>": 2326, "we`ar</w>": 2327, "bu`s</w>": 2328, "ta`in": 2329, "nu`mber</w>": 2330, "ro`r</w>": 2331, "k`at": 2332, "i`z": 2333, "th`ough</w>": 2334, "ho`sp": 2335, "m`m</w>": 2336, "fa`ir</w>": 2337, "ut`es</w>": 2338, "ho`t": 2339, "po`p</w>": 2340, "fi`ed</w>": 2341, "cam`p": 2342, "develop`ment</w>": 2343, "li`br": 2344, "c`ali": 2345, "em`s</w>": 2346, "\u00e2\u0123\u00a6`@</w>": 2347, "b`ol": 2348, "is`ed</w>": 2349, "stand`ing</w>": 2350, "mo`del</w>": 2351, "it`a</w>": 2352, "g`le</w>": 2353, "bro`wn</w>": 2354, "ima`ge</w>": 2355, "ve`red</w>": 2356, "for`ce</w>": 2357, "o`il</w>": 2358, "par`tic": 2359, "sh`u": 2360, "da`ily</w>": 2361, "la`w": 2362, "se`c": 2363, "cla`ss": 2364, "cam`p</w>": 2365, "holi`day</w>": 2366, "cl`in": 2367, "k`ers</w>": 2368, "pres`ent</w>": 2369, "gam`e": 2370, "incre`di": 2371, "er`ship</w>": 2372, "inter`view</w>": 2373, "b`ill</w>": 2374, "du`e</w>": 2375, "and`y</w>": 2376, "ab`o": 2377, "in`nov": 2378, "ke`y": 2379, "ac`ade": 2380, "p`il": 2381, "mo`der": 2382, "st`ars</w>": 2383, "br`and</w>": 2384, "f`er</w>": 2385, "wee`ks</w>": 2386, "con`si": 2387, "pr`e</w>": 2388, "sa`fe": 2389, "wr`it": 2390, "di`um</w>": 2391, "la`unch</w>": 2392, "marke`ting</w>": 2393, "ann`ual</w>": 2394, "as`si": 2395, "cour`t</w>": 2396, "la`dy</w>": 2397, "c`ted</w>": 2398, "and`a</w>": 2399, "in`side</w>": 2400, "chil`d</w>": 2401, "opp`or": 2402, "sm`ith</w>": 2403, "centr`e</w>": 2404, "gu`e</w>": 2405, "\u00e2\u0123`\u00a9</w>": 2406, "f`ren": 2407, "st`y</w>": 2408, "for`t</w>": 2409, "ent`ly</w>": 2410, "is`n</w>": 2411, "ke`ep": 2412, "to`ber</w>": 2413, "on`y</w>": 2414, "bo`y": 2415, "al`d</w>": 2416, "col`la": 2417, "de`mo": 2418, "le`vel</w>": 2419, "com`pet": 2420, "ad`o</w>": 2421, "b`our": 2422, "fanta`stic</w>": 2423, "m`ate</w>": 2424, "s`u</w>": 2425, "sou`th": 2426, "oppor`tun": 2427, "vers`ary</w>": 2428, "lat`er</w>": 2429, "bu`d": 2430, "face`book</w>": 2431, "la`un": 2432, "ster`n</w>": 2433, "p`it": 2434, "!`\"</w>": 2435, "ma`j": 2436, "gr`am": 2437, "tb`t</w>": 2438, "fi`re": 2439, "happ`y": 2440, "a`ks</w>": 2441, "wh`ole</w>": 2442, "actu`ally</w>": 2443, "ill`er</w>": 2444, "ell`a</w>": 2445, "lo`ts</w>": 2446, "al`ex": 2447, "an`ge": 2448, "lan`ds</w>": 2449, "\u00f0\u0141\u013a`\u0143": 2450, "en`ter": 2451, "r`ou": 2452, "episo`de</w>": 2453, "p`ed</w>": 2454, "in`ten": 2455, "sh`ire</w>": 2456, "wh`o": 2457, "pl`an</w>": 2458, "h`o</w>": 2459, "ca`ke</w>": 2460, "we`st": 2461, "mag`az": 2462, "fre`sh</w>": 2463, "c`c": 2464, "n`ar": 2465, "ch`ris</w>": 2466, "wr`iting</w>": 2467, "w`er</w>": 2468, "n`om": 2469, "l`o</w>": 2470, "mi`dd": 2471, "dre`am</w>": 2472, "o`l</w>": 2473, "ti`onal</w>": 2474, "de`b": 2475, ">`></w>": 2476, "be`come</w>": 2477, "s`i</w>": 2478, "gr`and</w>": 2479, "all`ing</w>": 2480, "hi`stor": 2481, "ri`de</w>": 2482, "i`red</w>": 2483, "saf`e</w>": 2484, "que`en</w>": 2485, "ci`l</w>": 2486, "in`tro": 2487, "vi`l</w>": 2488, "d`ani": 2489, "..`.": 2490, "ar`tic": 2491, "st`at": 2492, "sh`ort</w>": 2493, "or`ing</w>": 2494, "sel`fi": 2495, "mis`si": 2496, "do`c": 2497, "b`it": 2498, "g`all": 2499, "b`om": 2500, "i`re": 2501, "se`lec": 2502, "d`ition</w>": 2503, "\u00f0\u0141\u0136`\u00a5</w>": 2504, "fri`end": 2505, "be`at</w>": 2506, "gh`ting</w>": 2507, "\u00f0\u0141\u013a`\u012c</w>": 2508, "pe`ace</w>": 2509, "ex`hi": 2510, "ant`a</w>": 2511, "ab`ility</w>": 2512, "il`lu": 2513, "j`on": 2514, "qu`ality</w>": 2515, "tri`bu": 2516, "m`es</w>": 2517, "play`ers</w>": 2518, "fa`ir": 2519, "cu`t</w>": 2520, "c`ab": 2521, "suc`cess</w>": 2522, "b`i</w>": 2523, "su`s</w>": 2524, "pro`mo": 2525, "sch`e": 2526, "an`ge</w>": 2527, "ic`o</w>": 2528, "comm`it": 2529, "cat`ch</w>": 2530, "ill`a</w>": 2531, "kin`d</w>": 2532, "feel`ing</w>": 2533, "qu`o": 2534, "s`ay": 2535, "anni`versary</w>": 2536, "spo`t</w>": 2537, "mo`ther</w>": 2538, "an`e</w>": 2539, "p`end": 2540, "your`self</w>": 2541, "op`s</w>": 2542, "app`le</w>": 2543, "min`utes</w>": 2544, "p`o</w>": 2545, "gr`and": 2546, "ri`es</w>": 2547, "ha`ha</w>": 2548, "care`er</w>": 2549, "ed`ition</w>": 2550, "de`c": 2551, "ric`k</w>": 2552, "am`i</w>": 2553, "concer`t</w>": 2554, "iti`ve</w>": 2555, "ge`ous</w>": 2556, "d`ly</w>": 2557, "t`te</w>": 2558, "adv`ent": 2559, "i`g</w>": 2560, "li`ghts</w>": 2561, "ak`er</w>": 2562, "sk`y": 2563, "\u00e2\u0125`\u00a3</w>": 2564, "r`ay</w>": 2565, "fini`shed</w>": 2566, "w`ay": 2567, "s`d": 2568, "ac`coun": 2569, "\u00f0\u0141\u0134`\u0137</w>": 2570, "ck`y</w>": 2571, "ch`el": 2572, "lit`er": 2573, "pain`ting</w>": 2574, "lo`s</w>": 2575, "st`un": 2576, "techno`logy</w>": 2577, "n`as": 2578, "ma`r</w>": 2579, "b`il": 2580, "afric`a</w>": 2581, "ki`e</w>": 2582, "ey`es</w>": 2583, "gol`f</w>": 2584, "plu`s</w>": 2585, "ni`a</w>": 2586, "it`ec": 2587, "serv`ices</w>": 2588, "wed`ding</w>": 2589, "kno`wn</w>": 2590, "te`le": 2591, "..`...</w>": 2592, "star`ts</w>": 2593, "pa`ren": 2594, "w`ants</w>": 2595, "ati`onal</w>": 2596, "mon`ths</w>": 2597, "win`do": 2598, "fav`our": 2599, "er`t</w>": 2600, "magaz`ine</w>": 2601, "ex`clu": 2602, "re`ve": 2603, "b`c": 2604, "origin`al</w>": 2605, "e`ss": 2606, "n`al</w>": 2607, "an`ti": 2608, "st`ro": 2609, "t`ice</w>": 2610, "stu`dy</w>": 2611, "\u00e0`\u00a4": 2612, "v`ac": 2613, "nation`al": 2614, "fi`ve</w>": 2615, "ra`in": 2616, "ve`ment</w>": 2617, "u`te</w>": 2618, "ver`se</w>": 2619, "em`er": 2620, "ar`my</w>": 2621, "possi`ble</w>": 2622, "gue`ss</w>": 2623, "val`ley</w>": 2624, "ther`n</w>": 2625, "cro`w": 2626, "m`r": 2627, "col`or</w>": 2628, "on`to</w>": 2629, "pic`k</w>": 2630, "cle`ar</w>": 2631, "dar`k</w>": 2632, "t`ac": 2633, "wan`ted</w>": 2634, "it`ting</w>": 2635, "can`cer</w>": 2636, "govern`ment</w>": 2637, "di`e": 2638, "ri`se</w>": 2639, "z`ing</w>": 2640, "col`d</w>": 2641, "f`oun": 2642, "stu`dio</w>": 2643, "str`ation</w>": 2644, "bro`ther</w>": 2645, "a`head</w>": 2646, "sh`el": 2647, "mic`ro": 2648, "ic`ally</w>": 2649, "d`au": 2650, "sig`ned</w>": 2651, "vi`ol": 2652, "a`x": 2653, "as`se": 2654, "i`o": 2655, "w`re": 2656, "spl`ay</w>": 2657, "ch`ick": 2658, "augu`st</w>": 2659, "pl`at": 2660, "ti`ps</w>": 2661, "sp`i": 2662, "hu`man": 2663, "e`asy</w>": 2664, "lo`gi": 2665, "mi`ke</w>": 2666, "gro`w": 2667, "ag`re": 2668, "w`w": 2669, "sh`ad": 2670, "mo`tiv": 2671, "wi`de</w>": 2672, "tur`ns</w>": 2673, "om`g</w>": 2674, "v`ar": 2675, "de`fin": 2676, "su`g": 2677, "j`im": 2678, "\u00f0\u0141\u0136`\u00a5": 2679, "t`d</w>": 2680, "campa`ign</w>": 2681, "nam`ed</w>": 2682, "re`tweet</w>": 2683, "co`p": 2684, "t`v": 2685, "le`av": 2686, "k`is": 2687, "dou`ble</w>": 2688, "s`mar": 2689, "issu`e</w>": 2690, "vil`la": 2691, "in`formation</w>": 2692, "li`es</w>": 2693, "sto`ck</w>": 2694, "n`t</w>": 2695, "di`stric": 2696, "sh`or": 2697, "mi`x": 2698, "er`o": 2699, "se`p": 2700, "me`x": 2701, "see`ing</w>": 2702, "li`ve": 2703, "re`min": 2704, "co`de</w>": 2705, "g`ur": 2706, "s`c</w>": 2707, "wil`d</w>": 2708, "l`un": 2709, "h`ood</w>": 2710, "spo`t": 2711, "fa`ther</w>": 2712, "fore`ver</w>": 2713, "up`d": 2714, "tra`f": 2715, "f`ly</w>": 2716, "ne`ed": 2717, "gra`du": 2718, "tra`in</w>": 2719, "ma`ke": 2720, "s`ab": 2721, "be`y": 2722, "si`ze</w>": 2723, "lead`er</w>": 2724, "tal`ks</w>": 2725, "e`u</w>": 2726, "lo`g": 2727, "fo`x</w>": 2728, "gor`geous</w>": 2729, "le`ss": 2730, "le`ts</w>": 2731, "sur`pri": 2732, "my`self</w>": 2733, "no`te</w>": 2734, "li`ves</w>": 2735, "f`ru": 2736, "lo`ved</w>": 2737, "se`ver": 2738, "de`m": 2739, "j`i": 2740, "so`c": 2741, "h`old</w>": 2742, "do`gs</w>": 2743, "n`i</w>": 2744, "\u00e2`\u0140": 2745, "lea`ve</w>": 2746, "air`port</w>": 2747, "ben`ef": 2748, "ex`pl": 2749, "shi`ps</w>": 2750, "comple`te</w>": 2751, "ach`i": 2752, "gre`at": 2753, "vin`tage</w>": 2754, "j`ack</w>": 2755, "ro`c": 2756, "woo`d": 2757, "pri`v": 2758, "off`er</w>": 2759, "ey`e</w>": 2760, "ver`sion</w>": 2761, "te`a</w>": 2762, "co`ach": 2763, "off`ic": 2764, "w`ell": 2765, "g`en</w>": 2766, "s`at</w>": 2767, "h`h": 2768, "you`th</w>": 2769, "o`x": 2770, "?`\"</w>": 2771, "m`t</w>": 2772, "mi`x</w>": 2773, "g`g</w>": 2774, "d`le</w>": 2775, "natu`ral</w>": 2776, "buil`d</w>": 2777, "break`fast</w>": 2778, "thin`king</w>": 2779, "theat`re</w>": 2780, "mo`on</w>": 2781, "ber`g</w>": 2782, "go`als</w>": 2783, "geor`ge</w>": 2784, "en`e": 2785, "exc`ell": 2786, "il`ing</w>": 2787, "tun`e</w>": 2788, "y`ed</w>": 2789, "g`ate</w>": 2790, "m`it": 2791, "net`work</w>": 2792, "jo`e</w>": 2793, "h`ello</w>": 2794, "f`b</w>": 2795, "tu`be</w>": 2796, "we`aring</w>": 2797, "ath`le": 2798, "stru`c": 2799, "har`d": 2800, "gla`ss</w>": 2801, "g`ers</w>": 2802, "thro`w": 2803, "g`es</w>": 2804, "b`t": 2805, "indu`stry</w>": 2806, "manag`ement</w>": 2807, "ali`st</w>": 2808, "go`al</w>": 2809, "stre`am</w>": 2810, "y`el": 2811, "a`vi": 2812, "ici`ous</w>": 2813, "o`thers</w>": 2814, "s`ki": 2815, "chri`sti": 2816, "bir`d</w>": 2817, "e`sc": 2818, "m`in</w>": 2819, "tr`o</w>": 2820, "l`t</w>": 2821, "j`an</w>": 2822, "im`p": 2823, "ri`ghts</w>": 2824, "sh`a</w>": 2825, "or`gan": 2826, "cent`ral</w>": 2827, "ar`a</w>": 2828, "ro`ll</w>": 2829, "favour`ite</w>": 2830, "che`ster</w>": 2831, "el`se</w>": 2832, "p`ay</w>": 2833, "car`s</w>": 2834, "m`ine</w>": 2835, "ste`p</w>": 2836, "prac`tice</w>": 2837, "maj`or</w>": 2838, "h`ang": 2839, "\u00f0\u0141\u013a`\u013a</w>": 2840, "n`on</w>": 2841, "v`ari": 2842, "eng`ine": 2843, "vol`un": 2844, "di`a</w>": 2845, "i`led</w>": 2846, "arch`itec": 2847, "p`ink</w>": 2848, "d`s": 2849, "th`y</w>": 2850, "wa`sh": 2851, "web`site</w>": 2852, "ba`g</w>": 2853, "contro`l</w>": 2854, "el`li": 2855, "f`ra": 2856, "an`sw": 2857, "d`ence</w>": 2858, "y`u": 2859, "r`on</w>": 2860, "ol`a</w>": 2861, "g`in": 2862, "dr`in": 2863, "li`c</w>": 2864, "cou`ple</w>": 2865, "sp`ar": 2866, "g`on</w>": 2867, "cre`ate</w>": 2868, "c`t": 2869, "celebr`ating</w>": 2870, "de`ep</w>": 2871, "e`at</w>": 2872, "te`e</w>": 2873, "vo`ice</w>": 2874, "dro`p</w>": 2875, "vis`it": 2876, "at`ors</w>": 2877, "sta`dium</w>": 2878, "f`t": 2879, "w`is": 2880, "ro`l": 2881, "gra`de</w>": 2882, "fam`il": 2883, "po`ints</w>": 2884, "re`pre": 2885, "w`as": 2886, "traf`fic</w>": 2887, "jap`an</w>": 2888, "or`g": 2889, "hon`or</w>": 2890, "tex`as</w>": 2891, "man`u": 2892, "\u00e2\u013b`\u00a5</w>": 2893, "safe`ty</w>": 2894, "re`r</w>": 2895, "b`ag": 2896, "em`plo": 2897, "rele`ased</w>": 2898, "re`gu": 2899, "ak`a</w>": 2900, "n`av": 2901, "ro`le</w>": 2902, "sen`ior</w>": 2903, "spec`t</w>": 2904, "cro`ss</w>": 2905, "lin`es</w>": 2906, "be`st": 2907, "p`ack</w>": 2908, "s`in</w>": 2909, "ti`e</w>": 2910, "mis`sing</w>": 2911, "sun`set</w>": 2912, "li`ber": 2913, "is`ing</w>": 2914, "j`ay": 2915, "sk`i</w>": 2916, "champion`ship</w>": 2917, "ac`tiv": 2918, "la`dies</w>": 2919, "play`ed</w>": 2920, "y`y": 2921, "pu`bl": 2922, "al`o": 2923, "pri`de</w>": 2924, "s`r": 2925, "pa`ki": 2926, "lu`x": 2927, "sur`vi": 2928, "ck`ed</w>": 2929, "e`ts</w>": 2930, "cho`col": 2931, "austr`alia</w>": 2932, "par`is</w>": 2933, "mi`les</w>": 2934, "h`at": 2935, "ment`al</w>": 2936, "al`a</w>": 2937, "me`an</w>": 2938, "mob`ile</w>": 2939, "en`a</w>": 2940, "in`si": 2941, "f`ound": 2942, "chi`ef</w>": 2943, "t`ag": 2944, "incredi`ble</w>": 2945, "re`turn</w>": 2946, "\u00c3`\u00a9": 2947, "goo`gle</w>": 2948, "fren`ch</w>": 2949, "cre`w</w>": 2950, "hal`lo": 2951, "ali`an</w>": 2952, "j`az": 2953, "ch`er</w>": 2954, "sil`ver</w>": 2955, "nor`th": 2956, "eng`lish</w>": 2957, "base`ball</w>": 2958, "c`af": 2959, "lim`ited</w>": 2960, "follow`ing</w>": 2961, "app`reci": 2962, "ear`th</w>": 2963, "k`ir": 2964, "ve`mber</w>": 2965, "w`ed</w>": 2966, "p`tion</w>": 2967, "g`ed</w>": 2968, "oc`tober</w>": 2969, "fl`ori": 2970, "c`r</w>": 2971, "en`cy</w>": 2972, "ga`ve</w>": 2973, "lor`d</w>": 2974, "stu`ff</w>": 2975, "ber`ry</w>": 2976, "po`st": 2977, "sm`ile</w>": 2978, "bro`ad": 2979, "st`ate": 2980, "gg`er</w>": 2981, "me`ans</w>": 2982, "ic`y</w>": 2983, "gu`n</w>": 2984, "y`o</w>": 2985, "ma`ster</w>": 2986, "bur`g</w>": 2987, "han`ds</w>": 2988, "ni`e</w>": 2989, "/`/</w>": 2990, "uni`on</w>": 2991, "brit`ish</w>": 2992, "big`gest</w>": 2993, "distric`t</w>": 2994, "am`ing</w>": 2995, "h`il": 2996, "o`ce": 2997, "per`son": 2998, "pas`s</w>": 2999, "en`vir": 3000, "scho`ols</w>": 3001, "arri`ved</w>": 3002, "anc`es</w>": 3003, "insp`ired</w>": 3004, "ex`pla": 3005, "be`n</w>": 3006, "libr`ary</w>": 3007, "bo`tt": 3008, "am`p": 3009, "ste`ph": 3010, "cont`act</w>": 3011, "b`ang": 3012, "m`s": 3013, "cali`for": 3014, "t`old</w>": 3015, "batt`le</w>": 3016, "b`b</w>": 3017, "chic`ago</w>": 3018, "\u00e2\u013e`\u00a8</w>": 3019, "str`ate": 3020, "sh`i</w>": 3021, "de`ce": 3022, "-`)</w>": 3023, "ad`d</w>": 3024, "la`b": 3025, "j`ones</w>": 3026, "leg`end</w>": 3027, "cast`le</w>": 3028, "ing`er</w>": 3029, "st`ance</w>": 3030, "be`l</w>": 3031, "ur`a</w>": 3032, "re`fu": 3033, "lead`ers</w>": 3034, "po`t": 3035, "se`x": 3036, "h`ic": 3037, "artic`le</w>": 3038, "ki`d</w>": 3039, "fr`ance</w>": 3040, "x`x</w>": 3041, "ex`e": 3042, "gui`de</w>": 3043, "volun`te": 3044, "pr`int</w>": 3045, "al`i</w>": 3046, "ce`o</w>": 3047, "twee`ts</w>": 3048, "w`x</w>": 3049, "scen`e</w>": 3050, "vol`u": 3051, "ant`i</w>": 3052, "h`an</w>": 3053, "as`soci": 3054, "shar`ing</w>": 3055, "ro`se</w>": 3056, "mini`ster</w>": 3057, "sh`er": 3058, "in`ste": 3059, "cle`an": 3060, "demo`cr": 3061, "po`ster</w>": 3062, "sk`in</w>": 3063, "p`sy": 3064, "pro`per": 3065, "cra`zy</w>": 3066, "i`am": 3067, "o`re": 3068, "in`i</w>": 3069, "any`thing</w>": 3070, "po`d": 3071, "mo`ving</w>": 3072, "cl`ick</w>": 3073, "ex`plo": 3074, "com`b": 3075, "cra`ft</w>": 3076, "f`i</w>": 3077, "bloo`d</w>": 3078, "is`ra": 3079, "publ`ic": 3080, "d`ent": 3081, "ol`ym": 3082, "eng`land</w>": 3083, "a`si": 3084, "ch`er": 3085, "fac`t</w>": 3086, "envir`on": 3087, "har`ry</w>": 3088, "g`one</w>": 3089, "me`dic": 3090, "enjo`ying</w>": 3091, "just`ice</w>": 3092, "j`r</w>": 3093, "indi`an</w>": 3094, "wi`fe</w>": 3095, "s`ound</w>": 3096, "t`es</w>": 3097, "dra`wing</w>": 3098, "p`al</w>": 3099, "ide`a</w>": 3100, "cr`it": 3101, "ju`li": 3102, "il`er</w>": 3103, "war`m</w>": 3104, "cl`ar": 3105, "thou`ghts</w>": 3106, "def`en": 3107, "coun`cil</w>": 3108, "intro`duc": 3109, "di`ed</w>": 3110, "jan`u": 3111, "an`i</w>": 3112, "s`end</w>": 3113, "li`er</w>": 3114, "m`l": 3115, "intere`sting</w>": 3116, "tra`de</w>": 3117, "win`d</w>": 3118, "b`ay": 3119, "s`ac": 3120, "anc`y</w>": 3121, "sour`ce</w>": 3122, "b`es</w>": 3123, "org`ani": 3124, "ar`ly</w>": 3125, "lar`ge</w>": 3126, "ff`ici": 3127, "ta`g</w>": 3128, "u`t</w>": 3129, "de`sp": 3130, "o`es</w>": 3131, "tit`le</w>": 3132, "sy`m": 3133, "pic`tures</w>": 3134, "op`en": 3135, "wom`en": 3136, "sho`wing</w>": 3137, "ri`a</w>": 3138, "le`ast</w>": 3139, "lead`ership</w>": 3140, "cur`rent</w>": 3141, "elec`tr": 3142, "val`ent": 3143, "list`ening</w>": 3144, "c`key</w>": 3145, "gener`al</w>": 3146, "de`ser": 3147, "du`ce</w>": 3148, ";`)</w>": 3149, "c`ent</w>": 3150, "\u00f0\u0141\u013a\u012f`\u00f0\u0141\u013a\u012f": 3151, "sco`tt</w>": 3152, "po`or</w>": 3153, "selfi`e</w>": 3154, "ev`ents</w>": 3155, "i`on</w>": 3156, "wr`ong</w>": 3157, "de`v</w>": 3158, "h`ill": 3159, "sep`te": 3160, "cul`ture</w>": 3161, "l`ine": 3162, "sor`ry</w>": 3163, "s`ent</w>": 3164, "si`ster</w>": 3165, "ce`pt</w>": 3166, "k`ri": 3167, "no`vember</w>": 3168, "ar`i</w>": 3169, "announ`ce</w>": 3170, "z`ation</w>": 3171, "br`an": 3172, "g`ent": 3173, "d`u</w>": 3174, "l`en": 3175, "per`s": 3176, "f`m</w>": 3177, "mart`in</w>": 3178, "o`p</w>": 3179, "e`mb": 3180, "om`e": 3181, "midd`le</w>": 3182, "suc`cess": 3183, "pe`ter</w>": 3184, "janu`ary</w>": 3185, "f`lu": 3186, "rac`ing</w>": 3187, "d`av": 3188, "bi`ke</w>": 3189, "\u00f0\u0141\u0131`\u00bb</w>": 3190, "pe`t</w>": 3191, "shoo`t</w>": 3192, "profe`ssi": 3193, "feat`uring</w>": 3194, "septe`mber</w>": 3195, "now`playing</w>": 3196, "sta`ur": 3197, "z`a": 3198, "on`ic</w>": 3199, "qu`ick</w>": 3200, "bas`ke": 3201, "spe`aking</w>": 3202, "mil`it": 3203, "z`er</w>": 3204, "chick`en</w>": 3205, "b`ell</w>": 3206, "s`ad</w>": 3207, "co`ast</w>": 3208, "lo`ving</w>": 3209, "y`ers</w>": 3210, "d`j</w>": 3211, "pan`el</w>": 3212, "ver`age</w>": 3213, "s`wit": 3214, "ic`ks</w>": 3215, "b`ou": 3216, "califor`nia</w>": 3217, "s`am</w>": 3218, "paren`ts</w>": 3219, "er`o</w>": 3220, "k`illed</w>": 3221, "ph`ys": 3222, "jo`bs</w>": 3223, "mi`gr": 3224, "an`th": 3225, "e`mo": 3226, "hallo`ween</w>": 3227, "and`er": 3228, "c`m</w>": 3229, "compet`ition</w>": 3230, "e`ag": 3231, "s`ket": 3232, "sp`ir": 3233, "may`be</w>": 3234, "exclu`sive</w>": 3235, "app`e": 3236, "jour`ney</w>": 3237, "scre`en</w>": 3238, "for`d": 3239, "i`o</w>": 3240, "h`ate</w>": 3241, "u`g": 3242, "sou`l</w>": 3243, "her`o</w>": 3244, "soci`ety</w>": 3245, "sy`n": 3246, "gu`it": 3247, "n`h": 3248, "d`j": 3249, "as`es</w>": 3250, "im`pre": 3251, "ti`me": 3252, "sal`es</w>": 3253, "d`d</w>": 3254, "f`ts</w>": 3255, "summ`it</w>": 3256, "stun`ning</w>": 3257, "om`s</w>": 3258, "tur`ned</w>": 3259, "cle`an</w>": 3260, "sof`t</w>": 3261, "be`at": 3262, "re`staur": 3263, "de`red</w>": 3264, "en`ces</w>": 3265, "ma`gic</w>": 3266, "di`o": 3267, "sh`ine</w>": 3268, "gu`est</w>": 3269, "health`y</w>": 3270, "exhi`b": 3271, "stor`ies</w>": 3272, "po`pu": 3273, "n`is</w>": 3274, "el`a</w>": 3275, "bel`ow</w>": 3276, "fun`ny</w>": 3277, "resul`ts</w>": 3278, "s`ne": 3279, "cur`rently</w>": 3280, "ar`d": 3281, "down`load</w>": 3282, "f`light</w>": 3283, "m`al</w>": 3284, "f`ine</w>": 3285, "p`ad": 3286, "ch`u": 3287, "ent`ed</w>": 3288, "h`at</w>": 3289, "\u00f0\u0141\u0133`\u0131": 3290, "ste`ve</w>": 3291, "j`o</w>": 3292, "mar`k": 3293, "r`at": 3294, "b`all": 3295, "p`c</w>": 3296, "p`on": 3297, "b`by</w>": 3298, "o`li": 3299, "ar`ts</w>": 3300, "as`ure</w>": 3301, "bow`l</w>": 3302, "att`ack</w>": 3303, "mi`c</w>": 3304, "de`ar</w>": 3305, "ran`ge</w>": 3306, "en`ter</w>": 3307, "chocol`ate</w>": 3308, "br`illi": 3309, "ac`cess</w>": 3310, ",`\"</w>": 3311, "?`??</w>": 3312, "ch`ap": 3313, "con`st": 3314, "t`n": 3315, "mat`ter</w>": 3316, "blu`e": 3317, "gall`ery</w>": 3318, "em`p": 3319, "work`shop</w>": 3320, "lead`ing</w>": 3321, "y`ours</w>": 3322, "baske`tball</w>": 3323, "w`anna</w>": 3324, "th`u": 3325, "_`_</w>": 3326, "mar`ri": 3327, "sle`ep</w>": 3328, "bi`a</w>": 3329, "ch`e</w>": 3330, "ma`d</w>": 3331, "imp`act</w>": 3332, "o`wn": 3333, "si`r</w>": 3334, "chan`nel</w>": 3335, "euro`pe</w>": 3336, "e`sp": 3337, "k`itch": 3338, "hosp`ital</w>": 3339, "w`ra": 3340, "roy`al</w>": 3341, "f`s</w>": 3342, "ne`u": 3343, "qu`ar": 3344, "ne`y": 3345, "ac`ks</w>": 3346, "ch`ase</w>": 3347, "pp`y</w>": 3348, "st`al": 3349, "at`ely</w>": 3350, "ti`m</w>": 3351, "dece`mber</w>": 3352, "r`are</w>": 3353, "per`form": 3354, "cre`am</w>": 3355, "we`ight</w>": 3356, "ch`oo": 3357, "ni`ght": 3358, "ha`ven</w>": 3359, "fr`anc": 3360, "kh`an</w>": 3361, "buil`t</w>": 3362, "hel`ping</w>": 3363, "tru`st</w>": 3364, "ty`pe</w>": 3365, "gol`den</w>": 3366, "ta`x</w>": 3367, "s`now": 3368, "s`wi": 3369, "di`sa": 3370, "questi`ons</w>": 3371, "ve`y</w>": 3372, "li`ght": 3373, "c`n": 3374, "cl`oud</w>": 3375, "thom`as</w>": 3376, "ag`ed</w>": 3377, "sh`ou": 3378, "te`ams</w>": 3379, "gr`an": 3380, "re`ason</w>": 3381, "a`a</w>": 3382, "you`tube</w>": 3383, "v`p</w>": 3384, "pi`zz": 3385, "manag`er</w>": 3386, "bur`y</w>": 3387, "cre`dit</w>": 3388, "tre`at</w>": 3389, "ma`x</w>": 3390, "i`k": 3391, "ma`in": 3392, "g`ing</w>": 3393, "de`ad": 3394, "pro`bab": 3395, "ye`ah</w>": 3396, "\u00e3`\u0124": 3397, "br`and": 3398, "so`li": 3399, "pl`ant</w>": 3400, "ta`yl": 3401, "gir`l": 3402, "\u00f0\u0141\u013a`\u0143</w>": 3403, "nam`ent</w>": 3404, "au`to": 3405, "mess`age</w>": 3406, "ko`re": 3407, "n`ur": 3408, "ter`r": 3409, "ag`u": 3410, "ma`p</w>": 3411, "sen`ting</w>": 3412, "lo`ves</w>": 3413, "gi`ves</w>": 3414, "g`ab": 3415, "z`en</w>": 3416, "ro`bert</w>": 3417, "con`fir": 3418, "w`ars</w>": 3419, "o`m</w>": 3420, "sta`in": 3421, "cam`era</w>": 3422, "and`er</w>": 3423, "won`der</w>": 3424, "a`b</w>": 3425, "ca`p</w>": 3426, "s`old</w>": 3427, "su`it</w>": 3428, "wal`king</w>": 3429, "contin`ue</w>": 3430, "effe`c": 3431, "dau`ghter</w>": 3432, "d`anc": 3433, "cha`in</w>": 3434, "mul`ti": 3435, "ki`d": 3436, "y`an": 3437, "champi`on</w>": 3438, "v`o</w>": 3439, "ta`ins</w>": 3440, "ho`st</w>": 3441, "min`i</w>": 3442, "mis`sed</w>": 3443, "re`sc": 3444, "ly`n": 3445, "fin`ish</w>": 3446, "del`icious</w>": 3447, "s`as": 3448, "tayl`or</w>": 3449, "i`b": 3450, "pro`mis": 3451, "produc`ts</w>": 3452, "moun`tain</w>": 3453, "flori`da</w>": 3454, "regi`ster</w>": 3455, "tre`at": 3456, "rec`ent</w>": 3457, "fe`male</w>": 3458, "boo`th</w>": 3459, "mat`t</w>": 3460, "ve`hic": 3461, "s`op": 3462, "mo`tor": 3463, "suppor`ting</w>": 3464, "phi`c</w>": 3465, "ex`tre": 3466, "dr`ink</w>": 3467, "lan`e</w>": 3468, "th`ird</w>": 3469, "p`s": 3470, "con`stru": 3471, "ce`re": 3472, "far`m</w>": 3473, "\u00f0\u0141\u0130`\u012b</w>": 3474, "tu`red</w>": 3475, "\u00f0\u0141\u0133`\u012b</w>": 3476, "c`ats</w>": 3477, "a`j": 3478, "gi`e</w>": 3479, "shoo`ting</w>": 3480, "as`ked</w>": 3481, "paki`stan</w>": 3482, "am`e": 3483, "m`b</w>": 3484, "g`il": 3485, "leg`al</w>": 3486, "squ`are</w>": 3487, "in`vol": 3488, "dra`w</w>": 3489, "oo`oo": 3490, "!!`!!": 3491, "opportun`ity</w>": 3492, "p`y": 3493, "e`i": 3494, "b`ts</w>": 3495, "teach`er</w>": 3496, "charac`ter</w>": 3497, "john`son</w>": 3498, "br`on": 3499, "ly`wood</w>": 3500, "ch`ine": 3501, "c`ing</w>": 3502, "c`ine": 3503, "d`ge": 3504, "gam`ing</w>": 3505, "russi`a</w>": 3506, "ci`a</w>": 3507, "quo`te</w>": 3508, "ric`h</w>": 3509, "go`v": 3510, "flow`ers</w>": 3511, "sp`iri": 3512, "st`in</w>": 3513, "grow`th</w>": 3514, "\u00f0\u0141\u0131`\u00bc</w>": 3515, "comm`er": 3516, "j`uni": 3517, "mu`m</w>": 3518, "r`an</w>": 3519, "s`na": 3520, "a`ren": 3521, "c`b": 3522, "ac`tor</w>": 3523, "col`or": 3524, "si`t</w>": 3525, "pa`ir</w>": 3526, "ch`i</w>": 3527, "bo`w</w>": 3528, "acade`my</w>": 3529, "hel`d</w>": 3530, "r`ang": 3531, "me`tal</w>": 3532, "y`l</w>": 3533, "ac`tive</w>": 3534, "probab`ly</w>": 3535, "t`ch</w>": 3536, "need`ed</w>": 3537, "spe`e": 3538, "cho`ice</w>": 3539, "ital`y</w>": 3540, "ry`an</w>": 3541, "\u00f0\u0141\u0129`\u00ba": 3542, "flow`er</w>": 3543, "v`it": 3544, "m`n</w>": 3545, "found`ation</w>": 3546, "b`ak": 3547, "si`ons</w>": 3548, "ne`igh": 3549, "f`loo": 3550, "he`ard</w>": 3551, "re`mo": 3552, "fre`sh": 3553, "ing`ing</w>": 3554, "re`f": 3555, "to`wn": 3556, "cl`ou": 3557, "je`sus</w>": 3558, "spiri`t</w>": 3559, "cou`ldn</w>": 3560, "z`es</w>": 3561, "\u00f0\u0141\u0134`\u013b</w>": 3562, "willi`ams</w>": 3563, "pro`ce": 3564, "moder`n</w>": 3565, "pro`cess</w>": 3566, "sho`es</w>": 3567, "cre`ated</w>": 3568, "tri`c</w>": 3569, "issu`es</w>": 3570, "ann`e</w>": 3571, "att`en": 3572, "de`but</w>": 3573, "h`r</w>": 3574, "n`it": 3575, "sti`g": 3576, "a`po": 3577, "e`ps</w>": 3578, "z`u": 3579, "\u00e3`\u0122": 3580, "si`x</w>": 3581, "car`ds</w>": 3582, "lan`gu": 3583, "fam`ous</w>": 3584, "tour`nament</w>": 3585, "se`l</w>": 3586, "e`bay</w>": 3587, "y`n</w>": 3588, "st`on": 3589, "k`ick": 3590, "announ`ced</w>": 3591, "k`am": 3592, "vo`c": 3593, "brilli`ant</w>": 3594, "hou`se": 3595, "che`ese</w>": 3596, "war`ri": 3597, "mus`ic": 3598, "ho`ckey</w>": 3599, "\u00f0\u0141\u013a\u0124`\u00f0\u0141\u013a\u0124</w>": 3600, "sk`ills</w>": 3601, "au`tom": 3602, "smar`t</w>": 3603, "med`ical</w>": 3604, "mon`y</w>": 3605, "e`x</w>": 3606, "gu`ar": 3607, "gi`ve": 3608, "pers`onal</w>": 3609, "ven`tion</w>": 3610, "al`li": 3611, "pre`ss": 3612, "flo`or</w>": 3613, "m`c</w>": 3614, "victor`y</w>": 3615, "hi`m": 3616, "simp`le</w>": 3617, "th`or": 3618, "\u00f0\u0141\u0129\u00ba`\u00f0\u0141\u0129": 3619, "ta`il</w>": 3620, "lu`cky</w>": 3621, "ale`x</w>": 3622, "qu`ite</w>": 3623, "bo`t": 3624, "ssi`ons</w>": 3625, "chall`eng": 3626, "c`ann": 3627, "amaz`on</w>": 3628, "h`ell</w>": 3629, "b`ought</w>": 3630, ")`:</w>": 3631, "ed`y</w>": 3632, "secre`t</w>": 3633, "produc`tion</w>": 3634, "inde`pend": 3635, "de`fe": 3636, "ad`ded</w>": 3637, "p`r</w>": 3638, "p`ag": 3639, "be`d": 3640, "gre`atest</w>": 3641, "with`in</w>": 3642, "j`ay</w>": 3643, "\u00f0\u0141`\u00a5": 3644, "ire`land</w>": 3645, "re`ly</w>": 3646, "s`d</w>": 3647, "te`xt</w>": 3648, "dri`ving</w>": 3649, "pro`gram": 3650, "spe`ed</w>": 3651, "col`um": 3652, "str`on": 3653, "\u00c3`\u00a9</w>": 3654, "fore`st</w>": 3655, "\u00e2`\u0138": 3656, "mach`ine</w>": 3657, "co`in</w>": 3658, "sc`ar": 3659, "oun`t</w>": 3660, "bi`e</w>": 3661, "\u00a1`\u00ef\u00b8\u0131</w>": 3662, "por`tra": 3663, "comm`on</w>": 3664, "wre`st": 3665, "recei`ved</w>": 3666, "kno`w": 3667, "inve`st": 3668, "pl`ans</w>": 3669, "ac`cor": 3670, "ad`op": 3671, "ter`y</w>": 3672, "re`ali": 3673, "p`p</w>": 3674, "k`al": 3675, "art`work</w>": 3676, "me`an": 3677, "go`d": 3678, "inste`ad</w>": 3679, "an`ci": 3680, "motiv`ation</w>": 3681, "as`ing</w>": 3682, "inspir`ation</w>": 3683, "up`coming</w>": 3684, "polit`ical</w>": 3685, "euro`pe": 3686, "m`ers</w>": 3687, "heav`y</w>": 3688, "\u00f0\u0141\u0133`\u012f</w>": 3689, "fe`bru": 3690, "scot`land</w>": 3691, "ou`gh": 3692, "b`t</w>": 3693, "bo`ss</w>": 3694, "sche`du": 3695, "spe`ak</w>": 3696, "n`ick": 3697, "u`red</w>": 3698, "in`o": 3699, "e`k": 3700, "ri`sk</w>": 3701, "tor`y</w>": 3702, "pres`ents</w>": 3703, "b`on</w>": 3704, "ru`g": 3705, "st`ates</w>": 3706, "exhib`ition</w>": 3707, "il`o": 3708, "m`ill": 3709, "br`ought</w>": 3710, ":`-)</w>": 3711, "tou`ri": 3712, "com`e": 3713, "offici`ally</w>": 3714, "champi`ons</w>": 3715, "do`ors</w>": 3716, "re`p": 3717, "po`se</w>": 3718, "ex`tra</w>": 3719, "k`ings</w>": 3720, "soc`cer</w>": 3721, "squ`ad</w>": 3722, "app`lic": 3723, "at`a</w>": 3724, "some`times</w>": 3725, "t`ari": 3726, "excell`ent</w>": 3727, "\u00f0\u0141\u013a`\u013a": 3728, "stra`ight</w>": 3729, "car`ol": 3730, "ri`p</w>": 3731, "\u00e2\u0122`\u012f": 3732, "gra`phic</w>": 3733, "m`ol": 3734, "elec`tion</w>": 3735, "febru`ary</w>": 3736, "as`ons</w>": 3737, "l`i</w>": 3738, "di`r": 3739, "m`t": 3740, "n`ick</w>": 3741, "u`su": 3742, "m`rs</w>": 3743, "com`ics</w>": 3744, "inst`itu": 3745, "cor`por": 3746, "v`i</w>": 3747, "\u00f0\u0141\u013b`\u0131": 3748, "tu`ral</w>": 3749, "di`se": 3750, "ac`ci": 3751, "we`are": 3752, "am`ong</w>": 3753, "sho`pping</w>": 3754, "t`ill</w>": 3755, "wh`at": 3756, "cha`ir</w>": 3757, "sp`an": 3758, "chine`se</w>": 3759, "innov`ation</w>": 3760, "jo`y</w>": 3761, "k`it</w>": 3762, "cent`ury</w>": 3763, "ob`ama</w>": 3764, "ph`ili": 3765, "f`c": 3766, "re`ach</w>": 3767, "c`iti": 3768, "ul`ous</w>": 3769, "n`on": 3770, "d`ang": 3771, "happ`ening</w>": 3772, "bur`n</w>": 3773, "p`el": 3774, "or`ange</w>": 3775, "d`v": 3776, "k`ick</w>": 3777, "cla`im": 3778, "ing`ham</w>": 3779, "ph`y</w>": 3780, "no`v</w>": 3781, "pod`cast</w>": 3782, "wh`i": 3783, "ni`ghts</w>": 3784, "ear`lier</w>": 3785, "be`ar</w>": 3786, "la`h</w>": 3787, "exc`iting</w>": 3788, "or`a</w>": 3789, "gi`ven</w>": 3790, "s`lo": 3791, "memor`ies</w>": 3792, "contin`ues</w>": 3793, "produc`t</w>": 3794, "gh`o": 3795, "c`d": 3796, "kno`ws</w>": 3797, "\u00f0\u0141\u0130`\u012b": 3798, "publi`shed</w>": 3799, "discu`ss</w>": 3800, "y`ard</w>": 3801, "i`phone</w>": 3802, "tri`es</w>": 3803, "w`all": 3804, "fe`b</w>": 3805, "are`n</w>": 3806, "tru`th</w>": 3807, "win`ners</w>": 3808, "tu`re": 3809, "diti`onal</w>": 3810, "milit`ary</w>": 3811, "proble`m</w>": 3812, "m`and": 3813, "do`g": 3814, "lo`ss</w>": 3815, "c`ric": 3816, "can`adi": 3817, "ve`ter": 3818, "villa`ge</w>": 3819, "\"`,</w>": 3820, "y`r</w>": 3821, "un`g</w>": 3822, "don`ald</w>": 3823, "ag`ing</w>": 3824, "bir`ds</w>": 3825, "sci`enti": 3826, "le`s": 3827, "th`is": 3828, "regi`on</w>": 3829, "tic`al</w>": 3830, "itt`en</w>": 3831, "il`a</w>": 3832, "\u00f0\u0141\u013a`\u0130</w>": 3833, "d`ad": 3834, "di`am": 3835, "abo`ve</w>": 3836, "st`ren": 3837, "li`t</w>": 3838, "p`ir": 3839, "la`b</w>": 3840, "fo`cus</w>": 3841, "bus`y</w>": 3842, "d`ur": 3843, "app`ly</w>": 3844, "s`ma": 3845, "auth`or</w>": 3846, "ac`i": 3847, "exe`cu": 3848, "dom`in": 3849, "re`la": 3850, "jack`son</w>": 3851, "at`o</w>": 3852, "wash`ington</w>": 3853, "\u00f0\u0141\u013b`\u012e": 3854, "k`ill</w>": 3855, "popu`lar</w>": 3856, "ce`ment</w>": 3857, "ro`ad": 3858, "e`ating</w>": 3859, "loc`ation</w>": 3860, "v`ent": 3861, "ar`re": 3862, "n`an": 3863, "cu`sto": 3864, "advent`ure</w>": 3865, "or`din": 3866, "spor`t": 3867, "ul`t</w>": 3868, "lo`ck</w>": 3869, "questi`on</w>": 3870, "dri`ver</w>": 3871, "land`sc": 3872, "on`i": 3873, "k`ins</w>": 3874, "p`d": 3875, "jor`dan</w>": 3876, "te`red</w>": 3877, "k`k": 3878, "a`f</w>": 3879, "chil`d": 3880, "s`p</w>": 3881, "just`in</w>": 3882, "en`i": 3883, "s`elling</w>": 3884, "z`o": 3885, "wh`it": 3886, "bo`ston</w>": 3887, "partic`ip": 3888, "sig`ning</w>": 3889, "happ`ened</w>": 3890, "he`at</w>": 3891, "m`am": 3892, "dre`ams</w>": 3893, "lo`ws</w>": 3894, "gra`ph</w>": 3895, "the`day</w>": 3896, "head`ing</w>": 3897, "br`o</w>": 3898, "ble`ssed</w>": 3899, "vi`c</w>": 3900, "ve`gas</w>": 3901, "h`d</w>": 3902, "in`ning</w>": 3903, "ro`man": 3904, "and`ro": 3905, "den`ti": 3906, "u`se": 3907, "c`it": 3908, "pro`gress</w>": 3909, "writ`er</w>": 3910, "bo`b</w>": 3911, "ff`s</w>": 3912, "gro`wing</w>": 3913, "b`ly</w>": 3914, "aw`are": 3915, "ex`am": 3916, "sp`ent</w>": 3917, "be`t</w>": 3918, "sc`ore</w>": 3919, "bey`ond</w>": 3920, "do`cu": 3921, "ad`el": 3922, "s`f": 3923, "cou`ra": 3924, "colla`bor": 3925, "in`c</w>": 3926, "priv`ate</w>": 3927, "bo`at</w>": 3928, "*`*</w>": 3929, "z`one</w>": 3930, "p`ha": 3931, "b`ill": 3932, "to`tal</w>": 3933, "plan`ning</w>": 3934, "to`wards</w>": 3935, "plac`es</w>": 3936, "pre`view</w>": 3937, "cre`ative</w>": 3938, "dam`n</w>": 3939, "ide`as</w>": 3940, "se`ems</w>": 3941, "po`ten": 3942, "say`ing</w>": 3943, "di`splay</w>": 3944, "s`w</w>": 3945, "a`qu": 3946, "lou`is</w>": 3947, "by`e</w>": 3948, "li`l</w>": 3949, "e`mail</w>": 3950, "we`stern</w>": 3951, "ger`many</w>": 3952, "ell`er</w>": 3953, "re`s": 3954, "f`ant": 3955, "ment`ary</w>": 3956, "de`als</w>": 3957, "ric`hard</w>": 3958, "jer`sey</w>": 3959, "stren`g": 3960, "ra`d": 3961, "pizz`a</w>": 3962, "mon`d</w>": 3963, "w`are</w>": 3964, "l`ac": 3965, "g`i</w>": 3966, "ar`chi": 3967, "c`d</w>": 3968, "yel`low</w>": 3969, "rec`ently</w>": 3970, "re`ach": 3971, "\u00e0`\u00b9": 3972, "kitch`en</w>": 3973, "desig`ned</w>": 3974, "tr`y": 3975, "g`al</w>": 3976, "restaur`ant</w>": 3977, "at`ure</w>": 3978, "w`w</w>": 3979, "j`as": 3980, "l`ma": 3981, "\u00f0\u0141\u0133`\u012e</w>": 3982, "pa`in</w>": 3983, "av`o": 3984, "min`ute</w>": 3985, "sch`ol": 3986, "ther`ap": 3987, "tic`ket</w>": 3988, "d`ry</w>": 3989, "jap`an": 3990, "diti`ons</w>": 3991, "ter`ri": 3992, "sel`ves</w>": 3993, "happ`en</w>": 3994, "t`up</w>": 3995, "ma`g</w>": 3996, "cop`y</w>": 3997, "sh`er</w>": 3998, "free`dom</w>": 3999, "f`ile</w>": 4000, "speci`ally</w>": 4001, "tor`onto</w>": 4002, "lo`ad": 4003, "g`ary</w>": 4004, "re`y</w>": 4005, "answ`er</w>": 4006, "lo`y": 4007, "cau`ght</w>": 4008, "pri`ze</w>": 4009, "u`ne": 4010, "fic`ation</w>": 4011, "ni`ger": 4012, "sy`d": 4013, "tou`ch</w>": 4014, "feat`ure</w>": 4015, "jaz`z</w>": 4016, "recor`ds</w>": 4017, "him`self</w>": 4018, "di`sh</w>": 4019, "ro`ber": 4020, "spot`ted</w>": 4021, "ma`ster": 4022, "wa`ve</w>": 4023, "fin`als</w>": 4024, "bu`ll": 4025, "for`um</w>": 4026, "al`d": 4027, "re`comm": 4028, "ch`a</w>": 4029, "a`e</w>": 4030, "d`oo": 4031, "inst`ru": 4032, "tru`ly</w>": 4033, "l`g": 4034, "in`k": 4035, "bro`thers</w>": 4036, "de`st</w>": 4037, "j`im</w>": 4038, "m`it</w>": 4039, "clo`sed</w>": 4040, "is`on</w>": 4041, "tri`ed</w>": 4042, "s`anta</w>": 4043, "af`fe": 4044, "w`an</w>": 4045, "hor`se</w>": 4046, "g`row</w>": 4047, "camp`us</w>": 4048, "rel`ation": 4049, "nati`ve</w>": 4050, "jour`n": 4051, "go`v</w>": 4052, "o`ct</w>": 4053, "k`it": 4054, "b`ound</w>": 4055, "part`ner</w>": 4056, "re`ma": 4057, "crow`d</w>": 4058, "!`)</w>": 4059, "c`alls</w>": 4060, "ra`il": 4061, "qu`ali": 4062, "solu`tion</w>": 4063, "con`test</w>": 4064, "con`vers": 4065, "sn`ap": 4066, "b`ase</w>": 4067, "in`iti": 4068, "ta`x": 4069, "y`e</w>": 4070, "ent`repre": 4071, "it`or</w>": 4072, "constru`ction</w>": 4073, "foo`d": 4074, "present`ed</w>": 4075, "n`ings</w>": 4076, "cli`mate</w>": 4077, "k`m</w>": 4078, "mo`del": 4079, "b`j": 4080, "blo`ck</w>": 4081, "present`ation</w>": 4082, "dre`am": 4083, "fi`x": 4084, "c`alling</w>": 4085, "bus`ine": 4086, "con`gress</w>": 4087, "under`stand</w>": 4088, "we`b</w>": 4089, "val`ue</w>": 4090, "\u00ef\u00b8\u0131`\u00e2\u0125\u00a3</w>": 4091, "mex`ico</w>": 4092, "it`ely</w>": 4093, "ki`m</w>": 4094, "char`ity</w>": 4095, "ref`lec": 4096, "bl`an": 4097, "fl`ying</w>": 4098, "anal`y": 4099, "famil`ies</w>": 4100, "b`and": 4101, "reci`pe</w>": 4102, "celebr`ation</w>": 4103, "ac`cep": 4104, "ar`y": 4105, "to`t": 4106, "g`b</w>": 4107, "intere`sted</w>": 4108, "cap`tain</w>": 4109, "\u00e2\u013b`\u00a5": 4110, "ti`p</w>": 4111, "ab`sol": 4112, "bra`z": 4113, "inve`stig": 4114, "o`logy</w>": 4115, "de`c</w>": 4116, "tru`ck</w>": 4117, "ver`ing</w>": 4118, "c`lear": 4119, "don`t</w>": 4120, "go`tta</w>": 4121, "ad`vis": 4122, "beg`ins</w>": 4123, "ma`ss": 4124, "de`scri": 4125, "blo`ck": 4126, "k`im": 4127, "davi`d": 4128, "son`gs</w>": 4129, "memor`ial</w>": 4130, "feat`ures</w>": 4131, "su`stain": 4132, "'`.</w>": 4133, "gra`b</w>": 4134, "jo`se": 4135, "v`a": 4136, "con`serv": 4137, "se`ts</w>": 4138, "man`chester</w>": 4139, "fi`ghting</w>": 4140, "de`gre": 4141, "ag`a</w>": 4142, "in`d</w>": 4143, "sle`ep": 4144, "pos`ition</w>": 4145, "ha`ir": 4146, "sig`ns</w>": 4147, "pol`icy</w>": 4148, "it`o</w>": 4149, "al`ert</w>": 4150, "st`am": 4151, "sp`end</w>": 4152, "w`y": 4153, "absol`ut": 4154, "d`m</w>": 4155, "anim`al</w>": 4156, "my`ster": 4157, "success`ful</w>": 4158, "proble`ms</w>": 4159, "ro`bo": 4160, "k`ay": 4161, "gar`den": 4162, "p`d</w>": 4163, "may`or</w>": 4164, "d`ale</w>": 4165, "t`ol": 4166, "off`ers</w>": 4167, "vis`iting</w>": 4168, "friend`ly</w>": 4169, "tre`es</w>": 4170, "offic`er</w>": 4171, "accoun`t</w>": 4172, "ke`vin</w>": 4173, "\u00f0\u0141\u0133`\u012f": 4174, "gi`ant</w>": 4175, "contin`u": 4176, "con`su": 4177, "tr`act</w>": 4178, "n`fl</w>": 4179, "\u00f0\u0141\u013a`\u012c": 4180, "h`q</w>": 4181, "b`ility</w>": 4182, "a`ar": 4183, "dis`ney</w>": 4184, "te`en</w>": 4185, "on`ed</w>": 4186, "wh`ite": 4187, "tra`iler</w>": 4188, "de`dic": 4189, "al`one</w>": 4190, "absolut`ely</w>": 4191, "dig`ital": 4192, "willi`am</w>": 4193, "in`ation</w>": 4194, "s`wa": 4195, "e`e</w>": 4196, "enti`re</w>": 4197, "ger`man</w>": 4198, "ro`ll": 4199, "h`its</w>": 4200, "co`st</w>": 4201, "st`ay": 4202, "th`a</w>": 4203, "ali`ve</w>": 4204, "accor`ding</w>": 4205, "co`t": 4206, "liter`ally</w>": 4207, "her`it": 4208, "re`ti": 4209, "haha`ha</w>": 4210, "exper`i": 4211, "li`kes</w>": 4212, "g`t</w>": 4213, "ste`el</w>": 4214, "__`__": 4215, "ch`air": 4216, "christi`an</w>": 4217, "to`wer</w>": 4218, "diffe`rence</w>": 4219, "m`d</w>": 4220, "tre`ss</w>": 4221, "mi`d</w>": 4222, "prin`ce</w>": 4223, "afric`an</w>": 4224, "fe`der": 4225, "foo`t</w>": 4226, "car`ri": 4227, "ser`ved</w>": 4228, "r`ice</w>": 4229, "sh`all</w>": 4230, "feat`ured</w>": 4231, "ck`er</w>": 4232, "rec`ru": 4233, "po`e": 4234, "sen`se</w>": 4235, "ni`fic": 4236, "com`edy</w>": 4237, "cont`ent</w>": 4238, "f`at": 4239, "po`sted</w>": 4240, "con`tribu": 4241, "tim`ate</w>": 4242, "li`ver": 4243, "mb`le</w>": 4244, "inter`net</w>": 4245, "ag`e": 4246, "europe`an</w>": 4247, "cl`ing</w>": 4248, "gla`d</w>": 4249, "ff`ic": 4250, "sc`o</w>": 4251, "ak`es</w>": 4252, "el`le</w>": 4253, "ter`min": 4254, "ton`y</w>": 4255, "p`ale": 4256, "col`our</w>": 4257, "seri`ous</w>": 4258, "pat`ri": 4259, "movi`es</w>": 4260, "b`m": 4261, "professi`onal</w>": 4262, "ad`o": 4263, "al`u": 4264, "br`inging</w>": 4265, "f`alls</w>": 4266, "isra`el</w>": 4267, "ter`m</w>": 4268, "langu`age</w>": 4269, "bro`ok": 4270, "man`n</w>": 4271, "commun`ic": 4272, "can`not</w>": 4273, "ac`ti": 4274, "p`he": 4275, "y`an</w>": 4276, "entrepre`ne": 4277, "tur`key</w>": 4278, "log`ical</w>": 4279, "lon`g": 4280, "ar`m</w>": 4281, "ur`s</w>": 4282, "work`ers</w>": 4283, "ing`ly</w>": 4284, "gg`s</w>": 4285, "ri`c</w>": 4286, "tu`al</w>": 4287, "recei`ve</w>": 4288, "op`ens</w>": 4289, "ge`ar</w>": 4290, "soci`al": 4291, "fe`et</w>": 4292, "c`king</w>": 4293, "ad`ver": 4294, "fin`an": 4295, "fe`els</w>": 4296, "sp`la": 4297, "h`r": 4298, "ea`ster</w>": 4299, "bra`in</w>": 4300, "\u00e3`\u0123": 4301, "fi`g": 4302, "le`dge</w>": 4303, "ne`arly</w>": 4304, "prote`ct</w>": 4305, "ma`ssive</w>": 4306, "e`th": 4307, "aw`a": 4308, "\u00f0\u0141\u013a`\u0123</w>": 4309, "y`rs</w>": 4310, "aware`ness</w>": 4311, "defin`itely</w>": 4312, "k`n": 4313, "imag`ine</w>": 4314, "k`u</w>": 4315, "syste`ms</w>": 4316, "\u00f0\u0141\u0133`\u0131</w>": 4317, "f`as": 4318, "li`k": 4319, "provi`de</w>": 4320, "am`o": 4321, "disco`ver</w>": 4322, "inf`lu": 4323, "ma`ker</w>": 4324, "g`az": 4325, "fit`ness</w>": 4326, "stre`et": 4327, "er`s": 4328, "te`d": 4329, "w`c": 4330, "ys`is</w>": 4331, "pos`itive</w>": 4332, "hel`ped</w>": 4333, "que`st</w>": 4334, "andre`w</w>": 4335, "bra`d": 4336, "b`in": 4337, "hang`ing</w>": 4338, "l`ing": 4339, "bri`ght</w>": 4340, "se`ction</w>": 4341, "ma`ss</w>": 4342, "\u00f0\u0141\u013b`\u012e</w>": 4343, "follow`ers</w>": 4344, "ho`sting</w>": 4345, "tem`por": 4346, "fla`g</w>": 4347, "a`ve</w>": 4348, "let`ter</w>": 4349, "k`ur": 4350, "re`qui": 4351, "of`ten</w>": 4352, "cry`p": 4353, "su`ff": 4354, "\u00e2\u013c`\u00bd": 4355, "russi`an</w>": 4356, "treat`ment</w>": 4357, "al`le": 4358, "ha`y": 4359, "l`an</w>": 4360, "keep`ing</w>": 4361, "hol`y</w>": 4362, "power`ful</w>": 4363, "pre`dic": 4364, "fun`d</w>": 4365, "e`specially</w>": 4366, "windo`w</w>": 4367, "je`wel": 4368, "il`y": 4369, "\u00f0\u0141\u0134`\u013e</w>": 4370, "gener`ation</w>": 4371, "app`a": 4372, "seri`ously</w>": 4373, "o`d": 4374, "\u00f0\u0141\u013a\u0124\u00f0\u0141\u013a\u0124`\u00f0\u0141\u013a\u0124</w>": 4375, "cer`ti": 4376, "iri`sh</w>": 4377, "\u00f0\u0141\u0133`\u012e": 4378, "mi`ami</w>": 4379, "be`th</w>": 4380, "v`ity</w>": 4381, "se`cu": 4382, "che`f</w>": 4383, "cri`me</w>": 4384, "graph`y</w>": 4385, "ma`x": 4386, "arti`sts</w>": 4387, "re`volu": 4388, "gu`ard</w>": 4389, "spee`ch</w>": 4390, "u`c": 4391, "upd`ates</w>": 4392, "fac`es</w>": 4393, "st`ant</w>": 4394, "chang`ed</w>": 4395, "repor`ts</w>": 4396, "low`er</w>": 4397, "pe`ar": 4398, "n`c</w>": 4399, "k`il": 4400, "loo`ked</w>": 4401, "spe`aker</w>": 4402, "s`f</w>": 4403, "re`spect</w>": 4404, "ok`ay</w>": 4405, "oce`an</w>": 4406, "s`itting</w>": 4407, "architec`ture</w>": 4408, "tra`il</w>": 4409, "se`at</w>": 4410, "i`ra": 4411, "le`g</w>": 4412, "japan`ese</w>": 4413, "d`am</w>": 4414, "u`lar</w>": 4415, "sw`im": 4416, "polit`ics</w>": 4417, "finan`cial</w>": 4418, "ol`d": 4419, "mou`th</w>": 4420, "at`temp": 4421, "de`stin": 4422, "fi`shing</w>": 4423, "atten`tion</w>": 4424, "me`m": 4425, "chang`es</w>": 4426, "deci`ded</w>": 4427, "reli`gi": 4428, "g`in</w>": 4429, "c`av": 4430, "z`z</w>": 4431, "ad`am</w>": 4432, "ma`c</w>": 4433, "wr`ite</w>": 4434, "beg`in</w>": 4435, "sc`ul": 4436, "al`ter": 4437, "is`s</w>": 4438, "ath`on</w>": 4439, "imag`es</w>": 4440, "m`oo": 4441, "jo`ined</w>": 4442, "\u00f0\u0141\u013a`\u012b</w>": 4443, "\u00e2\u0140`\u00a1\u00ef\u00b8\u0131</w>": 4444, "pas`sed</w>": 4445, "mu`sli": 4446, "h`ir": 4447, "lar`gest</w>": 4448, "cam`er": 4449, "com`ic</w>": 4450, "gh`ted</w>": 4451, "rug`by</w>": 4452, "bur`gh</w>": 4453, "gg`ing</w>": 4454, "te`sting</w>": 4455, "pre`par": 4456, "lau`gh": 4457, "al`ed</w>": 4458, "impro`ve</w>": 4459, "beli`ev": 4460, "adv`ice</w>": 4461, "sha`res</w>": 4462, "he`art": 4463, "tur`ning</w>": 4464, "s`b</w>": 4465, "t`el": 4466, "caf`e</w>": 4467, "n`es</w>": 4468, "dani`el</w>": 4469, "pat`ter": 4470, "t`z</w>": 4471, "se`tt": 4472, "par`k": 4473, "c`and": 4474, "st`ick</w>": 4475, "happ`ens</w>": 4476, "bri`an</w>": 4477, "ne`west</w>": 4478, "e`pic</w>": 4479, "ad`or": 4480, "ki`es</w>": 4481, "war`ning</w>": 4482, "anim`als</w>": 4483, "custo`m</w>": 4484, "ar`c": 4485, "di`an</w>": 4486, "gol`d": 4487, "cor`e</w>": 4488, "t`f</w>": 4489, "c`ity": 4490, "pan`ts</w>": 4491, "re`ality</w>": 4492, "con`fi": 4493, "in`ju": 4494, "fo`x": 4495, "gu`il": 4496, "k`new</w>": 4497, "\u00e2\u013a`\u00ba": 4498, "cor`rec": 4499, "itu`de</w>": 4500, "d`den</w>": 4501, ".`#</w>": 4502, "re`duc": 4503, "pas`s": 4504, "f`on": 4505, "y`a": 4506, "ow`ner</w>": 4507, "re`turns</w>": 4508, "n`c": 4509, "e`ast": 4510, "ap`ol": 4511, "in`sur": 4512, "th`o</w>": 4513, "si`m": 4514, "juni`or</w>": 4515, "be`e</w>": 4516, "ang`el": 4517, "att`le</w>": 4518, "elec`tric</w>": 4519, "hor`ror</w>": 4520, "cra`sh</w>": 4521, "e`ye": 4522, "pat`h</w>": 4523, "sou`thern</w>": 4524, "emplo`ye": 4525, "ge`o": 4526, "t`an</w>": 4527, "ha`z": 4528, "r`ally</w>": 4529, "\u00f0\u0141\u0131`\u00bb": 4530, "proper`ty</w>": 4531, "was`n</w>": 4532, "enjo`yed</w>": 4533, "gre`y</w>": 4534, "g`as": 4535, "bre`w": 4536, "nor`thern</w>": 4537, "hol`ding</w>": 4538, "g`p</w>": 4539, "ta`ke": 4540, "ch`art</w>": 4541, "ly`n</w>": 4542, "dr`ama</w>": 4543, "z`o</w>": 4544, "pa`id</w>": 4545, "throw`back</w>": 4546, "cu`p": 4547, "discu`ssion</w>": 4548, "down`town</w>": 4549, "w`ill": 4550, "le`w": 4551, "b`is": 4552, "t`ary</w>": 4553, "bre`ad</w>": 4554, "up`on</w>": 4555, "r`ate</w>": 4556, "teach`ers</w>": 4557, "it`ation</w>": 4558, "anc`ed</w>": 4559, "cy`cle</w>": 4560, "choo`se</w>": 4561, "d`c": 4562, "ir`an</w>": 4563, "co`w": 4564, "da`ve</w>": 4565, "ra`ise</w>": 4566, "prin`cess</w>": 4567, "fa`ith</w>": 4568, "-`></w>": 4569, "indu`stri": 4570, "sp`ain</w>": 4571, "guit`ar</w>": 4572, "fac`ts</w>": 4573, "m`n": 4574, "sp`en": 4575, "cour`te": 4576, "go`tt": 4577, "projec`ts</w>": 4578, "au`di": 4579, "o`sc": 4580, "pe`ter": 4581, "s`and</w>": 4582, "intere`st</w>": 4583, "happ`iness</w>": 4584, "ven`ue</w>": 4585, "sol`di": 4586, "surpri`se</w>": 4587, "poten`tial</w>": 4588, "per`io": 4589, "custom`er</w>": 4590, "i`i": 4591, "g`ni": 4592, "manu`fac": 4593, "e`co": 4594, "bro`ken</w>": 4595, "sing`er</w>": 4596, "vel`s</w>": 4597, "wal`es</w>": 4598, "hu`s": 4599, "in`j": 4600, "f`our": 4601, "tal`ent</w>": 4602, "d`ying</w>": 4603, "mat`the": 4604, "fil`m": 4605, "jo`ining</w>": 4606, "s`ell</w>": 4607, "j`ar": 4608, "lma`o</w>": 4609, "sur`ger": 4610, "bb`c": 4611, "sour`ces</w>": 4612, "au`stin</w>": 4613, "ni`k": 4614, "char`les</w>": 4615, "f`am</w>": 4616, "prin`ci": 4617, "ange`l</w>": 4618, "cas`h</w>": 4619, "lo`t": 4620, "o`red</w>": 4621, "pla`ys</w>": 4622, "pl`ate</w>": 4623, "don`e": 4624, "memor`y</w>": 4625, "br`ings</w>": 4626, "n`ba</w>": 4627, "solu`tions</w>": 4628, "teach`ing</w>": 4629, "gr`ace</w>": 4630, "cir`cu": 4631, "hel`ps</w>": 4632, "foun`der</w>": 4633, "mar`y": 4634, "expl`ore</w>": 4635, "de`cor": 4636, "par`ts</w>": 4637, "ch`o</w>": 4638, "inte`gr": 4639, "ha`u": 4640, "is`es</w>": 4641, "pu`tting</w>": 4642, "in`er</w>": 4643, "r`it": 4644, "v`y</w>": 4645, "mic`hel": 4646, "blu`es</w>": 4647, "every`day</w>": 4648, "for`ms</w>": 4649, "bi`o</w>": 4650, "ye`ar": 4651, "p`in</w>": 4652, "t`ter</w>": 4653, "spr`ing": 4654, ")`)</w>": 4655, "po`t</w>": 4656, "al`ing</w>": 4657, "perform`ing</w>": 4658, "sh`an": 4659, "plan`et</w>": 4660, "mus`ical</w>": 4661, "head`s</w>": 4662, "it`alian</w>": 4663, "stru`gg": 4664, "\u00e2\u0122\u012f`\u00e2\u013b": 4665, "w`ings</w>": 4666, "pu`mp": 4667, "h`h</w>": 4668, "tr`ou": 4669, "a`id</w>": 4670, "pri`me</w>": 4671, "ear`th": 4672, "pa`int</w>": 4673, "mon`t": 4674, "am`y</w>": 4675, "bb`c</w>": 4676, "fab`ulous</w>": 4677, "fru`it</w>": 4678, "andro`id</w>": 4679, "bour`ne</w>": 4680, "cere`mony</w>": 4681, "enti`al</w>": 4682, "?`?": 4683, "deb`ate</w>": 4684, "on`ing</w>": 4685, "dra`ft</w>": 4686, "sol`ar</w>": 4687, "t`x</w>": 4688, "j`am</w>": 4689, "cor`n": 4690, "!!`!!!</w>": 4691, "bro`o": 4692, "mil`k</w>": 4693, "po`sed</w>": 4694, "o`hi": 4695, "mo`vement</w>": 4696, "b`ren": 4697, "part`ner": 4698, "p`g</w>": 4699, "et`te</w>": 4700, "ar`ies</w>": 4701, "sh`out</w>": 4702, "n`g</w>": 4703, "leav`ing</w>": 4704, "t`ells</w>": 4705, "sen`s": 4706, "ta`ste</w>": 4707, "kel`ly</w>": 4708, "wor`l": 4709, "gy`m</w>": 4710, "ric`h": 4711, "e`gy": 4712, "pi`d</w>": 4713, "ma`s": 4714, "\u00e2`\u0124": 4715, "courte`sy</w>": 4716, "fran`k</w>": 4717, "incre`ase</w>": 4718, "wr`itten</w>": 4719, "pp`ers</w>": 4720, "re`l</w>": 4721, "ha`i</w>": 4722, "s`as</w>": 4723, "s`ound": 4724, "tt`i</w>": 4725, "w`ich</w>": 4726, "ri`ver": 4727, "..`.\"</w>": 4728, "a`g</w>": 4729, "fel`low</w>": 4730, "ro`me</w>": 4731, "sm`all": 4732, "gen`cy</w>": 4733, "ic`an</w>": 4734, "lux`ury</w>": 4735, "pro`of</w>": 4736, "me`t": 4737, "wild`life</w>": 4738, "mom`ents</w>": 4739, "ra`ther</w>": 4740, "cor`ner</w>": 4741, "com`pe": 4742, "canadi`an</w>": 4743, "lik`ely</w>": 4744, "therap`y</w>": 4745, "li`am": 4746, "econom`ic</w>": 4747, "indi`e": 4748, "rou`te</w>": 4749, "fi`ght": 4750, "ho`pe": 4751, "se`tting</w>": 4752, "ant`ly</w>": 4753, "cro`ss": 4754, "fant`asy</w>": 4755, "de`e": 4756, "sket`ch</w>": 4757, "comp`li": 4758, "ym`i</w>": 4759, "ru`les</w>": 4760, "engine`ering</w>": 4761, "fig`ure</w>": 4762, "ro`w": 4763, ".`,</w>": 4764, "f`w</w>": 4765, "syd`ney</w>": 4766, "w`ou": 4767, "t`ation</w>": 4768, "dre`w</w>": 4769, "us`es</w>": 4770, "the`re": 4771, "sp`read</w>": 4772, "struc`ture</w>": 4773, "pat`rick</w>": 4774, "appa`rently</w>": 4775, "ro`s": 4776, "h`ills</w>": 4777, "w`we</w>": 4778, "ann`y</w>": 4779, "com`mission</w>": 4780, "di`v": 4781, "f`ying</w>": 4782, "con`sul": 4783, "anal`ysis</w>": 4784, "ex`i": 4785, "ten`nis</w>": 4786, "vehic`le</w>": 4787, "\u00f0\u0141\u013a\u0143`\u00f0\u0141\u013a\u0143": 4788, "as`s</w>": 4789, "high`ly</w>": 4790, "op`ened</w>": 4791, "b`ann": 4792, "\u00f0\u0141\u0134`\u013b": 4793, "mp`h</w>": 4794, "wi`shing</w>": 4795, "v`or</w>": 4796, "fi`f": 4797, "give`away</w>": 4798, "r`r": 4799, "ra`y": 4800, "je`ss": 4801, "g`at": 4802, "ic`ymi</w>": 4803, "x`it</w>": 4804, "high`est</w>": 4805, "yor`k": 4806, "pi`e</w>": 4807, "invol`ved</w>": 4808, "high`er</w>": 4809, "ri`e</w>": 4810, "mal`ay": 4811, "int`elli": 4812, "desp`ite</w>": 4813, "che`e": 4814, "sar`ah</w>": 4815, "be`an</w>": 4816, "reco`gni": 4817, "ar`sen": 4818, "tal`ented</w>": 4819, "pas`sion</w>": 4820, "ic`h": 4821, "ab`c</w>": 4822, "lead`s</w>": 4823, "dise`ase</w>": 4824, "v`is</w>": 4825, "se`c</w>": 4826, "pre`senting</w>": 4827, "m`illi": 4828, "hol`e</w>": 4829, "sho`ts</w>": 4830, "de`part": 4831, "surger`y</w>": 4832, "gov`t</w>": 4833, "b`in</w>": 4834, "du`al</w>": 4835, "e`vi": 4836, "lon`ger</w>": 4837, "ev`ol": 4838, "scre`en": 4839, "portra`it</w>": 4840, "et`c</w>": 4841, "lo`se</w>": 4842, "ch`at": 4843, "p`en</w>": 4844, "p`i</w>": 4845, "om`a</w>": 4846, "s`ick</w>": 4847, "er`c": 4848, "compan`ies</w>": 4849, "en`try</w>": 4850, "plan`e</w>": 4851, "gr`y</w>": 4852, "ven`e": 4853, "liver`pool</w>": 4854, "premi`ere</w>": 4855, "sha`red</w>": 4856, "a`red</w>": 4857, "fil`ms</w>": 4858, "ir`a</w>": 4859, "holi`days</w>": 4860, "cric`ket</w>": 4861, "ici`an</w>": 4862, "v`ing": 4863, ".`)</w>": 4864, "ul`timate</w>": 4865, "di`vision</w>": 4866, "con`duc": 4867, "se`pt</w>": 4868, "for`ces</w>": 4869, "mon`t</w>": 4870, "s`mart": 4871, "disa`pp": 4872, "sun`shine</w>": 4873, "in`d": 4874, "b`less</w>": 4875, "ma`de": 4876, "col`ors</w>": 4877, "fran`k": 4878, "ir`on</w>": 4879, "bott`le</w>": 4880, "s`go": 4881, "m`ood</w>": 4882, "j`ason</w>": 4883, "er`ic</w>": 4884, "bir`th</w>": 4885, "te`en": 4886, "respon`se</w>": 4887, "tar`get</w>": 4888, "state`ment</w>": 4889, "fe`ar</w>": 4890, "th`el": 4891, "al`um": 4892, "ar`ab": 4893, "bl`in</w>": 4894, "direc`tion</w>": 4895, "ste`ps</w>": 4896, "er`ial</w>": 4897, "wor`ked</w>": 4898, "at`l": 4899, "\u00f0\u0141\u0134`\u0137": 4900, "fel`t</w>": 4901, "pol`i</w>": 4902, "scen`es</w>": 4903, "hom`es</w>": 4904, "b`ell": 4905, "e`at": 4906, "ate`ful</w>": 4907, "t`in</w>": 4908, "l`ace</w>": 4909, "fol`ks</w>": 4910, "p`se</w>": 4911, "an`n</w>": 4912, "wis`dom</w>": 4913, "fa`v</w>": 4914, "but`ter": 4915, "s`r</w>": 4916, "are`as</w>": 4917, "sm`oo": 4918, "bi`z</w>": 4919, "dg`es</w>": 4920, "app`o": 4921, "mo`re": 4922, "the`m": 4923, "effe`ct</w>": 4924, "windo`ws</w>": 4925, "sun`ny</w>": 4926, "cap`ital</w>": 4927, "tot`ally</w>": 4928, "c`ities</w>": 4929, "gr`ant</w>": 4930, "mb`ers</w>": 4931, "s`low</w>": 4932, "au`tu": 4933, "il`ities</w>": 4934, "w`ro": 4935, "ri`sing</w>": 4936, "st`ics</w>": 4937, "viol`ence</w>": 4938, "i`gh</w>": 4939, "qu`ot": 4940, "h`it": 4941, "t`c</w>": 4942, "herit`age</w>": 4943, "bu`ff": 4944, "ne`s": 4945, "z`ar": 4946, "den`tial</w>": 4947, "ex`ac": 4948, "ed`ge</w>": 4949, "de`ep": 4950, "aren`a</w>": 4951, "be`came</w>": 4952, "benef`its</w>": 4953, "mar`ks</w>": 4954, "mb`er": 4955, "a`z</w>": 4956, "am`es</w>": 4957, "pre`ci": 4958, "dra`gon</w>": 4959, "re`g": 4960, "d`ings</w>": 4961, "do`s</w>": 4962, "\u00f0\u0141\u0134`\u00aa": 4963, "n`el": 4964, "s`ity</w>": 4965, "me`al</w>": 4966, "di`st": 4967, "leg`end": 4968, "pur`chase</w>": 4969, "pic`al</w>": 4970, "st`ick": 4971, "f`at</w>": 4972, "du`ba": 4973, "profe`ss": 4974, "car`to": 4975, "pro`f</w>": 4976, "coun`tries</w>": 4977, "respon`si": 4978, "se`qu": 4979, "fa`b</w>": 4980, "tribu`te</w>": 4981, "hon`ored</w>": 4982, "prac`tic": 4983, "pur`ple</w>": 4984, "an`ton": 4985, "pa`red</w>": 4986, "t`ough</w>": 4987, "summ`er": 4988, "environ`ment</w>": 4989, "s`ons</w>": 4990, "\u00f0\u0141\u013b`\u0131</w>": 4991, "m`ps</w>": 4992, "gi`es</w>": 4993, "her`oes</w>": 4994, "t`elling</w>": 4995, "hen`ry</w>": 4996, "f`en": 4997, "know`ledge</w>": 4998, "\u0122`\u00ef\u00b8\u0131</w>": 4999, "f`r</w>": 5000, "ne`g": 5001, "u`re": 5002, "ac`king</w>": 5003, "hear`ts</w>": 5004, "s`oo": 5005, "hol`lywood</w>": 5006, "ju`mp": 5007, "sau`ce</w>": 5008, "schedu`le</w>": 5009, "tur`n": 5010, "yo`ga</w>": 5011, "cre`ating</w>": 5012, "c`ket</w>": 5013, "cre`ek</w>": 5014, "\u00e2`\u0143": 5015, "custom`ers</w>": 5016, "ma`dri": 5017, "gu`l": 5018, "asse`mb": 5019, "moun`t</w>": 5020, "c`ell</w>": 5021, "to`p": 5022, "st`al</w>": 5023, "dav`is</w>": 5024, "t`wi": 5025, "sig`n": 5026, "premi`er</w>": 5027, "iti`ons</w>": 5028, "he`aring</w>": 5029, "un`k</w>": 5030, "pati`ents</w>": 5031, "app`ear": 5032, "heav`en</w>": 5033, "al`ty</w>": 5034, "doc`tor</w>": 5035, "a`e": 5036, "plat`form</w>": 5037, "je`ff</w>": 5038, "\u00f0\u0141\u0135`\u00b7</w>": 5039, "regi`onal</w>": 5040, "bi`d</w>": 5041, "box`ing</w>": 5042, "ex`ten": 5043, "or`ity</w>": 5044, "a`w</w>": 5045, "w`ise</w>": 5046, "il`le</w>": 5047, "sever`al</w>": 5048, "bi`e": 5049, "s`itu": 5050, "sy`ria</w>": 5051, "\u00e2\u013e`\u0127</w>": 5052, "remin`der</w>": 5053, "enter`tain": 5054, "li`on</w>": 5055, "part`ners</w>": 5056, "in`n</w>": 5057, "ph`ar": 5058, "f`au": 5059, "pl`s</w>": 5060, "expe`cted</w>": 5061, "sug`ar</w>": 5062, "deci`sion</w>": 5063, "s`b": 5064, "ch`ron": 5065, "associ`ation</w>": 5066, "leav`es</w>": 5067, "vis`ited</w>": 5068, "sh`ap": 5069, "\u00f0\u0141\u0134`\u0138</w>": 5070, "fur`ther</w>": 5071, "h`ann": 5072, "w`i</w>": 5073, "run`s</w>": 5074, "l`er": 5075, "fun`ding</w>": 5076, "fil`led</w>": 5077, "..`....</w>": 5078, "tin`y</w>": 5079, "han`g</w>": 5080, "or`g</w>": 5081, "co`ol": 5082, "se`min": 5083, "\u00f0\u0141\u0131`\u0128</w>": 5084, "spon`s": 5085, "nav`y</w>": 5086, "sa`int</w>": 5087, "dru`g</w>": 5088, "d`al</w>": 5089, "r`oun": 5090, "co`vered</w>": 5091, "tra`ditional</w>": 5092, "invest`ment</w>": 5093, "de`te": 5094, "al`ism</w>": 5095, "f`low</w>": 5096, "n`is": 5097, "sun`rise</w>": 5098, "fe`at</w>": 5099, "f`ted</w>": 5100, "we`ird</w>": 5101, "je`re": 5102, "ve`gan</w>": 5103, "medic`ine</w>": 5104, "an`o": 5105, "ac`cu": 5106, "deli`very</w>": 5107, "temp`le</w>": 5108, "chang`ing</w>": 5109, "wil`son</w>": 5110, "phili`pp": 5111, "re`fe": 5112, "n`d": 5113, "is`er</w>": 5114, "g`ay</w>": 5115, "r`and": 5116, "ati`ves</w>": 5117, "t`ely</w>": 5118, "p`and": 5119, "intelli`g": 5120, "g`are": 5121, "am`bas": 5122, "de`mon": 5123, "commit`tee</w>": 5124, "strate`gy</w>": 5125, "refu`ge": 5126, "bud`get</w>": 5127, "prote`c": 5128, "pi`er": 5129, "ex`press</w>": 5130, "nom`in": 5131, "econom`y</w>": 5132, "al`low": 5133, "ic`on</w>": 5134, "gal`ax": 5135, "o`h": 5136, "indi`vi": 5137, "dem`and</w>": 5138, "vir`gin": 5139, "lu`ke</w>": 5140, "ali`sts</w>": 5141, "man`i": 5142, "s`mi": 5143, "ju`dge</w>": 5144, "ent`y</w>": 5145, "mic`hi": 5146, "resul`t</w>": 5147, "am`ed</w>": 5148, "spe`aks</w>": 5149, "'`,</w>": 5150, "hou`ston</w>": 5151, "sh`in": 5152, "b`ing</w>": 5153, "fl`y": 5154, "ch`em": 5155, "au`to</w>": 5156, "v`as": 5157, "ge`t": 5158, "ar`m": 5159, "thank`s": 5160, "d`in</w>": 5161, "gan`g</w>": 5162, "x`x": 5163, "si`on": 5164, "loc`ated</w>": 5165, "p`l</w>": 5166, "jo`sh</w>": 5167, "in`fo": 5168, "jo`ins</w>": 5169, "adver`ti": 5170, "ot`d</w>": 5171, "el`d</w>": 5172, "si`e</w>": 5173, "re`asons</w>": 5174, "v`ent</w>": 5175, "\u00f0\u0141\u0129\u00ba\u00f0\u0141\u0129`\u00b8</w>": 5176, "\u00e2`\u0142": 5177, "convers`ation</w>": 5178, "stu`di": 5179, "\u00f0\u0141\u0136\u00a5`\u00f0\u0141\u0136\u00a5": 5180, "go`s</w>": 5181, "s`ounds</w>": 5182, "un`it</w>": 5183, "mu`sc": 5184, "ge`l</w>": 5185, "ack`ed</w>": 5186, "pac`i": 5187, "co`s</w>": 5188, "de`re": 5189, "u`u": 5190, "a`o</w>": 5191, "la`m</w>": 5192, "inspir`ing</w>": 5193, "ar`ms</w>": 5194, "tw`are</w>": 5195, "mat`ters</w>": 5196, "ad`dic": 5197, "du`de</w>": 5198, "ex`t": 5199, "cri`sis</w>": 5200, "b`ath</w>": 5201, "me`et": 5202, "sing`h</w>": 5203, "expe`ct</w>": 5204, "del`hi</w>": 5205, "resc`ue</w>": 5206, "wor`st</w>": 5207, "au`g</w>": 5208, "shi`pping</w>": 5209, "ser`ving</w>": 5210, "st`o</w>": 5211, "dar`k": 5212, "ac`es</w>": 5213, "histor`ic</w>": 5214, "landsc`ape</w>": 5215, "desig`ner</w>": 5216, "b`illion</w>": 5217, "gr`ateful</w>": 5218, "wa`ke</w>": 5219, "e`ve": 5220, "m`iller</w>": 5221, "hou`sing</w>": 5222, "dy`nam": 5223, "is`co</w>": 5224, "be`ha": 5225, "sh`op": 5226, "pr`ou": 5227, "e`as": 5228, "a`sia</w>": 5229, "e`ding</w>": 5230, "k`on": 5231, "depart`ment</w>": 5232, "aw`ar": 5233, "mar`ine</w>": 5234, "in`ci": 5235, "photograph`er</w>": 5236, "ta`pe</w>": 5237, "lo`go</w>": 5238, "r`ings</w>": 5239, "d`it": 5240, "--`--": 5241, "vin`yl</w>": 5242, "w`c</w>": 5243, "vo`ting</w>": 5244, "se`ven</w>": 5245, "ambas`sad": 5246, "dal`las</w>": 5247, "t`u</w>": 5248, "com`ment</w>": 5249, "k`ra": 5250, "b`les</w>": 5251, "w`ag": 5252, "u`d</w>": 5253, "au`dio</w>": 5254, "stri`ke</w>": 5255, "offici`al": 5256, "o`ts</w>": 5257, "me`tho": 5258, "to`ols</w>": 5259, "ra`di": 5260, "al`an</w>": 5261, "hun`t</w>": 5262, "wat`ched</w>": 5263, "a`ke</w>": 5264, "fa`ke</w>": 5265, "drin`king</w>": 5266, "mer`ry</w>": 5267, "m`l</w>": 5268, "b`day</w>": 5269, "ri`o</w>": 5270, "ni`ke</w>": 5271, "c`ant</w>": 5272, "re`pe": 5273, "co`stu": 5274, "mur`der</w>": 5275, "ak`ers</w>": 5276, "ch`ers</w>": 5277, "ou`ts</w>": 5278, "beg`inning</w>": 5279, "so`s</w>": 5280, "ad`es</w>": 5281, "n`in": 5282, "not`es</w>": 5283, "wro`te</w>": 5284, "sol`o</w>": 5285, "c`i</w>": 5286, "li`ghting</w>": 5287, "ur`ban</w>": 5288, "bre`xit</w>": 5289, "att`end</w>": 5290, "shir`ts</w>": 5291, "pla`yo": 5292, "ac`tress</w>": 5293, "pl`ic": 5294, "stand`ard</w>": 5295, "quot`es</w>": 5296, "par`ade</w>": 5297, "anci`ent</w>": 5298, "\u00c2`\u00a9</w>": 5299, "tur`ing</w>": 5300, "re`e</w>": 5301, "pri`mary</w>": 5302, "fla`sh</w>": 5303, "citi`z": 5304, "mat`es</w>": 5305, "ste`in</w>": 5306, "z`i</w>": 5307, "clin`ton</w>": 5308, "sk`in": 5309, "gen`e": 5310, "hu`m": 5311, "g`ar</w>": 5312, "t`le</w>": 5313, "y`i": 5314, "fo`cu": 5315, "de`an</w>": 5316, "pl`ants</w>": 5317, "cy`ber": 5318, "b`u</w>": 5319, "om`e</w>": 5320, "ho`p</w>": 5321, "ad`dress</w>": 5322, "ti`x</w>": 5323, "gi`fts</w>": 5324, "relation`ship</w>": 5325, "sub`scri": 5326, "fe`ed</w>": 5327, "exac`tly</w>": 5328, "haw`ks</w>": 5329, "ex`o</w>": 5330, "stre`ss</w>": 5331, "s`n</w>": 5332, "arre`sted</w>": 5333, "an`e": 5334, "sof`tware</w>": 5335, "z`ero</w>": 5336, "the`me</w>": 5337, "mu`mb": 5338, "im`migr": 5339, "mi`a</w>": 5340, "make`up</w>": 5341, "ple`asure</w>": 5342, "uni`vers": 5343, "har`b": 5344, "eng`ine</w>": 5345, "ap`er</w>": 5346, "r`in": 5347, "br`a</w>": 5348, "institu`te</w>": 5349, "le`ather</w>": 5350, "al`th</w>": 5351, "sing`ing</w>": 5352, "co`s": 5353, "gh`ty</w>": 5354, "me`as": 5355, "st`ic": 5356, "si`de": 5357, "insur`ance</w>": 5358, "co`t</w>": 5359, "pit`ch</w>": 5360, "moun`tains</w>": 5361, "cri`min": 5362, "su`pre": 5363, "valent`ine</w>": 5364, "at`er</w>": 5365, "wou`ldn</w>": 5366, "sc`ale</w>": 5367, "rel`ated</w>": 5368, "re`gar": 5369, "star`tup</w>": 5370, "pack`ed</w>": 5371, "mi`ke": 5372, "week`ly</w>": 5373, "p`ts</w>": 5374, "coun`t</w>": 5375, "ha`r</w>": 5376, "gott`en</w>": 5377, "min`d": 5378, "ber`lin</w>": 5379, "con`ditions</w>": 5380, "swit`ch</w>": 5381, "cor`n</w>": 5382, "sa`ve": 5383, "g`li": 5384, "emer`gency</w>": 5385, "tun`ed</w>": 5386, "sto`ck": 5387, "discu`ssing</w>": 5388, "every`body</w>": 5389, "s`day": 5390, "whe`ther</w>": 5391, "wrest`ling</w>": 5392, "ec`es</w>": 5393, "gen`der</w>": 5394, "ch`en": 5395, "\u00f0\u0141\u0133`\u0122</w>": 5396, "madri`d</w>": 5397, "mar`athon</w>": 5398, "e`gg</w>": 5399, "i`er</w>": 5400, "th`x</w>": 5401, "as`king</w>": 5402, "kore`a</w>": 5403, "wol`f</w>": 5404, "ay`a</w>": 5405, "g`m</w>": 5406, "g`au": 5407, "at`ory</w>": 5408, "v`r</w>": 5409, "gra`ss</w>": 5410, "k`illing</w>": 5411, "b`ble</w>": 5412, "ur`o</w>": 5413, "un`i</w>": 5414, "e`th</w>": 5415, "sh`ore</w>": 5416, "th`en": 5417, "re`ale": 5418, "bot`tom</w>": 5419, "ex`erc": 5420, "k`ar</w>": 5421, "or`ies</w>": 5422, "ad`ri": 5423, "san`ds</w>": 5424, "se`x</w>": 5425, ".`'</w>": 5426, "volunte`ers</w>": 5427, "per`form</w>": 5428, "par`liam": 5429, "inclu`de</w>": 5430, "deli`ghted</w>": 5431, "execu`tive</w>": 5432, "fu`el</w>": 5433, "kis`s</w>": 5434, "\u00e3`\u0127": 5435, "char`ge</w>": 5436, "h`u</w>": 5437, "ca`kes</w>": 5438, "ve`t</w>": 5439, "g`lu": 5440, "agre`e</w>": 5441, "pr`ices</w>": 5442, "n`au": 5443, "h`l</w>": 5444, "g`ru": 5445, "ra`j": 5446, "streng`th</w>": 5447, "b`ic": 5448, "sp`ending</w>": 5449, "al`es</w>": 5450, "av`en": 5451, "b`last</w>": 5452, ":`(</w>": 5453, "yo`f": 5454, "nor`mal</w>": 5455, "si`x": 5456, "qu`ick": 5457, "se`a": 5458, "d`aw": 5459, "mee`ts</w>": 5460, "lo`vers</w>": 5461, "upd`ated</w>": 5462, "po`tat": 5463, "comple`ted</w>": 5464, "coo`k</w>": 5465, "opportun`ities</w>": 5466, "p`ure</w>": 5467, "organ`ic</w>": 5468, "tem`per": 5469, "c`am</w>": 5470, "avo`id</w>": 5471, "par`king</w>": 5472, "duba`i</w>": 5473, "and`o</w>": 5474, "di`stri": 5475, "to`y</w>": 5476, "comple`tely</w>": 5477, "don`ald": 5478, "tri`al</w>": 5479, "bas`s</w>": 5480, "b`oun": 5481, "back`ground</w>": 5482, "v`as</w>": 5483, "mar`vel</w>": 5484, "lu`m</w>": 5485, "ru`s</w>": 5486, "t`ool</w>": 5487, "com`missi": 5488, "throw`back": 5489, "fin`ding</w>": 5490, "is`lam": 5491, "!`?</w>": 5492, "st`op": 5493, "e`vil</w>": 5494, "or`al</w>": 5495, "resi`dents</w>": 5496, "i`denti": 5497, "o`ak": 5498, "\u00f0\u0141\u0130`\u00b6</w>": 5499, "l`il": 5500, "span`ish</w>": 5501, "chap`ter</w>": 5502, "sto`pped</w>": 5503, "direc`t</w>": 5504, "ho`sted</w>": 5505, "pic`ked</w>": 5506, "lab`our</w>": 5507, "lew`is</w>": 5508, "defen`se</w>": 5509, "\u00e0`\u00ae": 5510, "health`care</w>": 5511, "wh`is": 5512, "mat`h</w>": 5513, "pe`ak</w>": 5514, "ra`ised</w>": 5515, "fi`x</w>": 5516, "bu`ll</w>": 5517, "th`ir": 5518, "chel`sea</w>": 5519, "fol`k</w>": 5520, "tr`e</w>": 5521, "can`di": 5522, "pau`l": 5523, "ei`ther</w>": 5524, "ad`am": 5525, "poe`try</w>": 5526, "jewel`ry</w>": 5527, "\u00f0\u0141`\u00a6": 5528, "pr`ay</w>": 5529, "\u00d8`\u00a7": 5530, "g`c</w>": 5531, "o`z</w>": 5532, "wi`shes</w>": 5533, "fore`ign</w>": 5534, "sun`g</w>": 5535, "lear`ned</w>": 5536, "en`e</w>": 5537, "n`ing": 5538, "micha`el": 5539, "illu`stration</w>": 5540, "legend`ary</w>": 5541, "w`av": 5542, "b`au": 5543, "\u00f0\u0141\u013c`\u00a8</w>": 5544, "cal`end": 5545, "stre`ets</w>": 5546, "\u00e2`\u0128": 5547, "mon`ster</w>": 5548, "bu`ck": 5549, "g`r</w>": 5550, "scho`ol": 5551, "ba`th": 5552, "wa`ste</w>": 5553, "ne`ck": 5554, "ha`wa": 5555, "be`ach": 5556, "re`plac": 5557, "jec`t</w>": 5558, "on`er</w>": 5559, "fac`tory</w>": 5560, "coun`t": 5561, "\u00f0\u0141\u0135`\u00b8</w>": 5562, "mor`gan</w>": 5563, "der`ing</w>": 5564, "se`an</w>": 5565, "steph`en</w>": 5566, "de`p": 5567, "no`vel</w>": 5568, "vide`os</w>": 5569, "ic`al": 5570, "press`ure</w>": 5571, "arsen`al</w>": 5572, "ex`pre": 5573, "ir`s</w>": 5574, "tren`ding</w>": 5575, "ss`a</w>": 5576, "fla`sh": 5577, "re`sear": 5578, "thr`ough": 5579, "profess`or</w>": 5580, "scul`p": 5581, "to`s</w>": 5582, "gg`ed</w>": 5583, "mm`a</w>": 5584, "be`e": 5585, "a`pe": 5586, "hun`ter</w>": 5587, "am`i": 5588, "he`i": 5589, "pla`stic</w>": 5590, "bu`cks</w>": 5591, "uni`verse</w>": 5592, "le`gen": 5593, "niger`ia</w>": 5594, "ple`ased</w>": 5595, "ri`s": 5596, "thin`ks</w>": 5597, "autu`mn</w>": 5598, "i`ds</w>": 5599, "d`is</w>": 5600, "anth`ony</w>": 5601, "\u00f0\u0141\u0131`\u00bd</w>": 5602, "ak`ed</w>": 5603, "gla`sses</w>": 5604, "fin`ance</w>": 5605, "z`er": 5606, "k`as": 5607, "con`tract</w>": 5608, "nu`mbers</w>": 5609, "sh`aw": 5610, "partner`ship</w>": 5611, "t`il": 5612, "laun`ched</w>": 5613, "s`al</w>": 5614, "victor`ia</w>": 5615, "theat`er</w>": 5616, "usu`al</w>": 5617, "nam`es</w>": 5618, "perio`d</w>": 5619, "eli`za": 5620, "i`th": 5621, "bar`cel": 5622, "ro`cks</w>": 5623, "bag`s</w>": 5624, "mat`e": 5625, "distri`bu": 5626, "j`on</w>": 5627, "di`ffic": 5628, "ali`zed</w>": 5629, "cur`ren": 5630, "sco`red</w>": 5631, "b`ha": 5632, "du`blin</w>": 5633, "ro`se": 5634, "in`ted</w>": 5635, "soli`d</w>": 5636, "beha`vi": 5637, "wal`ker</w>": 5638, "simp`ly</w>": 5639, "garden`s</w>": 5640, "head`ed</w>": 5641, "in`i": 5642, "ohi`o</w>": 5643, "we`ap": 5644, "f`o</w>": 5645, "gl`en": 5646, "e`state</w>": 5647, "ran`dom</w>": 5648, "th`under": 5649, "thr`u</w>": 5650, "k`ill": 5651, "jac`ket</w>": 5652, "it`i</w>": 5653, "entertain`ment</w>": 5654, "thanks`giving</w>": 5655, "ent`al</w>": 5656, "en`coura": 5657, "el`o": 5658, "a`ther": 5659, "tan`k</w>": 5660, "high`lights</w>": 5661, "f`ting</w>": 5662, "ru`le</w>": 5663, "model`s</w>": 5664, "bor`der</w>": 5665, "bj`p</w>": 5666, "hus`band</w>": 5667, "in`done": 5668, "ken`ya</w>": 5669, "be`ars</w>": 5670, "al`o</w>": 5671, "n`inten": 5672, "pi`x": 5673, "str`o</w>": 5674, "or`ders</w>": 5675, "sal`ad</w>": 5676, "ro`ads</w>": 5677, "n`or</w>": 5678, "l`ation</w>": 5679, "sop`hi": 5680, "\u00f0\u0141\u0131`\u00bc": 5681, "pi`eces</w>": 5682, "b`one</w>": 5683, "min`s</w>": 5684, "inclu`des</w>": 5685, "nu`tr": 5686, "phi`l</w>": 5687, "s`ent": 5688, "fun`dra": 5689, "ga`in</w>": 5690, "bor`ough</w>": 5691, "n`ad": 5692, "mon`day": 5693, "activ`ity</w>": 5694, "it`ems</w>": 5695, "be`coming</w>": 5696, "ken`ne": 5697, "de`tro": 5698, "car`di": 5699, "gue`sts</w>": 5700, "u`x</w>": 5701, "world`wide</w>": 5702, "sever`e</w>": 5703, "new`s": 5704, "thank`ful</w>": 5705, "fic`tion</w>": 5706, "ve`ge": 5707, "m`all</w>": 5708, "si`an</w>": 5709, "er`al</w>": 5710, "inj`ury</w>": 5711, "le`e": 5712, "men`u</w>": 5713, "danc`ing</w>": 5714, "scot`ti": 5715, "exam`ple</w>": 5716, "(`#</w>": 5717, "na`i": 5718, "studi`os</w>": 5719, "ba`i": 5720, "\u00f0\u0141\u0134`\u013d</w>": 5721, "j`av": 5722, "diam`ond</w>": 5723, "vin`ce</w>": 5724, "ric`k": 5725, "prote`ction</w>": 5726, "lin`col": 5727, "cham`ps</w>": 5728, "appro`ach</w>": 5729, "d`ar</w>": 5730, "m`ile</w>": 5731, "clou`ds</w>": 5732, "je`ff": 5733, "in`fin": 5734, "l`ers</w>": 5735, "p`les</w>": 5736, "pe`ace": 5737, "go`p</w>": 5738, "\u00e2\u013b`\u00a1</w>": 5739, "tech`n": 5740, "str`a</w>": 5741, "a`verage</w>": 5742, "ef`fort</w>": 5743, "introduc`ing</w>": 5744, "di`versity</w>": 5745, "austr`alian</w>": 5746, "am`p</w>": 5747, "boo`st</w>": 5748, "s`ke": 5749, "pati`ent</w>": 5750, "appreci`ate</w>": 5751, "ici`ans</w>": 5752, "pu`r</w>": 5753, "f`ell</w>": 5754, "woo`ds</w>": 5755, "illu`str": 5756, "\u00f0\u0141`\u0138": 5757, "ag`ency</w>": 5758, "ac`tions</w>": 5759, "brit`ain</w>": 5760, "under`way</w>": 5761, "se`attle</w>": 5762, "el`and</w>": 5763, "ag`o": 5764, "f`ill</w>": 5765, "stre`aming</w>": 5766, "pro`test</w>": 5767, "challeng`es</w>": 5768, "ky`o</w>": 5769, "et`sy</w>": 5770, "coo`king</w>": 5771, "exper`t</w>": 5772, "ru`ss": 5773, "rain`bow</w>": 5774, "commer`cial</w>": 5775, "sp`in": 5776, "be`ats</w>": 5777, "c`ry</w>": 5778, "val`u": 5779, "el`i</w>": 5780, "th`row</w>": 5781, "gr`ams</w>": 5782, "le`vels</w>": 5783, "michi`gan</w>": 5784, "c`ad": 5785, "ador`able</w>": 5786, "const`itu": 5787, "w`s": 5788, "pu`b</w>": 5789, "mid`night</w>": 5790, "th`at": 5791, "net`fli": 5792, "braz`il</w>": 5793, "die`go</w>": 5794, "regu`lar</w>": 5795, "jo`y": 5796, "\u00e2\u0124`\u00ac</w>": 5797, "li`qu": 5798, "ea`stern</w>": 5799, "k`ni": 5800, "fl`at</w>": 5801, "n`p</w>": 5802, "bro`wn": 5803, "w`er": 5804, "se`y": 5805, "tt`ers</w>": 5806, "ac`ting</w>": 5807, "v`anc": 5808, "cy`cling</w>": 5809, "program`me</w>": 5810, "ra`w</w>": 5811, "comple`x</w>": 5812, "tat`too</w>": 5813, "throwback`thursday</w>": 5814, "se`ssions</w>": 5815, "ro`oms</w>": 5816, "si`ght</w>": 5817, "speci`es</w>": 5818, "bom`b</w>": 5819, "lau`gh</w>": 5820, "ke`eps</w>": 5821, "mo`on": 5822, "offic`ers</w>": 5823, "con`ver": 5824, "t`r</w>": 5825, "ha`sh": 5826, "t`ack": 5827, "ri`ous</w>": 5828, "ad`ap": 5829, "a`j</w>": 5830, "reco`gn": 5831, "ex`po</w>": 5832, "sug`ge": 5833, "confir`med</w>": 5834, "rol`ling</w>": 5835, "dre`ssing</w>": 5836, "ic`t</w>": 5837, "fri`day": 5838, "ph`ones</w>": 5839, "ri`dge</w>": 5840, "con`cept</w>": 5841, "ro`y</w>": 5842, "ke`ys</w>": 5843, "ef`for": 5844, "c`ate": 5845, "k`ne": 5846, "ev`en": 5847, "l`ay</w>": 5848, "commun`ities</w>": 5849, "mo`d": 5850, "n`az": 5851, "every`where</w>": 5852, "al`ab": 5853, "bit`coin</w>": 5854, "ban`ks</w>": 5855, "out`door</w>": 5856, "feder`al</w>": 5857, "sto`res</w>": 5858, "h`p</w>": 5859, "c`al</w>": 5860, "m`ely</w>": 5861, "sig`nific": 5862, "be`ar": 5863, "re`public": 5864, "clo`ser</w>": 5865, "al`lah</w>": 5866, "pic`k": 5867, "x`d</w>": 5868, "pal`ace</w>": 5869, "ch`ill</w>": 5870, "b`am": 5871, "er`ous</w>": 5872, "un`a</w>": 5873, "al`len</w>": 5874, "out`standing</w>": 5875, "olym`pic</w>": 5876, "supp`ly</w>": 5877, "fi`gu": 5878, "v`au": 5879, "l`p</w>": 5880, "char`lie</w>": 5881, "un`es</w>": 5882, ">`>></w>": 5883, "legen`ds</w>": 5884, "ici`al</w>": 5885, "co`ast": 5886, "benef`it</w>": 5887, "mul`ti</w>": 5888, "f`its</w>": 5889, "far`mers</w>": 5890, "am`ount</w>": 5891, "si`sters</w>": 5892, "har`ve": 5893, "hon`ey</w>": 5894, "que`en": 5895, "b`ers</w>": 5896, "pl`ann": 5897, "\u00e2\u0143`\u0132": 5898, "m`u</w>": 5899, "barcel`ona</w>": 5900, "al`ber": 5901, "stat`us</w>": 5902, "re`main</w>": 5903, "ex`tra": 5904, "c`andy</w>": 5905, "vi`ous</w>": 5906, "\u00e2\u013e`\u012e": 5907, "o`v": 5908, "warri`ors</w>": 5909, "--`></w>": 5910, "ju`mp</w>": 5911, "am`ar": 5912, "x`mas</w>": 5913, "stu`dies</w>": 5914, "i`ors</w>": 5915, "k`or": 5916, "don`ate</w>": 5917, "pre`p": 5918, "fi`sh": 5919, "im`a</w>": 5920, "pain`ted</w>": 5921, "ad`mini": 5922, "co`splay</w>": 5923, "spor`ts": 5924, "dro`ps</w>": 5925, "fi`ghter</w>": 5926, "evi`dence</w>": 5927, "\u00f0\u0141\u0134`\u00aa</w>": 5928, "la`ke": 5929, "ro`b</w>": 5930, "cine`ma</w>": 5931, "pro`file</w>": 5932, "\u00c3`\u00b1": 5933, "stan`ds</w>": 5934, "leg`acy</w>": 5935, "sh`ape</w>": 5936, "ro`of</w>": 5937, "ci`vil</w>": 5938, "i`ans</w>": 5939, "sy`l": 5940, "sh`am": 5941, "vo`ted</w>": 5942, "re`tail</w>": 5943, "ph`illi": 5944, "li`sted</w>": 5945, "du`ty</w>": 5946, "n`b": 5947, "th`es</w>": 5948, "f`are</w>": 5949, "au`ction</w>": 5950, "ffici`al</w>": 5951, "stor`ms</w>": 5952, "d`p</w>": 5953, "l`oun": 5954, "sh`ops</w>": 5955, "al`y": 5956, "ani`me</w>": 5957, "multi`ple</w>": 5958, "\u00f0\u0141\u013a\u012f`\u00f0\u0141\u013a\u012f</w>": 5959, "psy`cho": 5960, "je`an</w>": 5961, "ap`art": 5962, "candi`date</w>": 5963, "gg`y</w>": 5964, "con`f</w>": 5965, "jose`ph</w>": 5966, "w`ick</w>": 5967, "me`at</w>": 5968, "fr`ame</w>": 5969, "c`l</w>": 5970, "for`got</w>": 5971, "ph`y": 5972, "f`ing": 5973, "li`ed</w>": 5974, "re`p</w>": 5975, "se`ed</w>": 5976, "f`all": 5977, "u`fc</w>": 5978, "nu`t</w>": 5979, "lin`d": 5980, "mo`de</w>": 5981, "fiel`ds</w>": 5982, "en`ce": 5983, "s`ley</w>": 5984, "\u00f0\u0141\u00a4`\u0136</w>": 5985, "ch`ill": 5986, "follow`ed</w>": 5987, "announ`ces</w>": 5988, "cor`ru": 5989, "tro`phy</w>": 5990, "them`selves</w>": 5991, "ac`le</w>": 5992, "al`du": 5993, "k`ong</w>": 5994, "l`on</w>": 5995, "s`v": 5996, "bro`ke</w>": 5997, "ander`son</w>": 5998, "ta`i": 5999, "stor`y": 6000, "tempor`ary</w>": 6001, "activ`ities</w>": 6002, "k`ati": 6003, "ari`z": 6004, "cry`stal</w>": 6005, "spo`ke</w>": 6006, "extre`mely</w>": 6007, "tra`ding</w>": 6008, "\u00f0\u0141\u0134`\u013c</w>": 6009, "\u00c3`\u00bc": 6010, "in`ch</w>": 6011, "ed`in": 6012, "out`fit</w>": 6013, "equ`ip": 6014, "ma`di": 6015, "form`ed</w>": 6016, "be`ef</w>": 6017, "po`p": 6018, "ti`ger</w>": 6019, "this`day</w>": 6020, "ti`red</w>": 6021, "neigh`b": 6022, "re`tro": 6023, "is`a</w>": 6024, "un`t</w>": 6025, "t`as": 6026, "kan`sas</w>": 6027, "de`st": 6028, "secon`ds</w>": 6029, "ta`y": 6030, "hur`ric": 6031, "o`u</w>": 6032, "galax`y</w>": 6033, "dad`dy</w>": 6034, "bro`w": 6035, "bur`ger</w>": 6036, "en`ced</w>": 6037, "de`sk</w>": 6038, "ac`cur": 6039, "secre`tary</w>": 6040, "el`ite</w>": 6041, "k`ab": 6042, "ch`in": 6043, "touri`sm</w>": 6044, "bud`dy</w>": 6045, "ici`de</w>": 6046, "dre`ssed</w>": 6047, "u`d": 6048, "vac`ation</w>": 6049, "che`ers</w>": 6050, "com`for": 6051, "charac`ters</w>": 6052, "j`et</w>": 6053, "bu`ying</w>": 6054, "l`ins</w>": 6055, "n`ap": 6056, "reale`state</w>": 6057, "li`e": 6058, "af`c</w>": 6059, "i`ii</w>": 6060, "f`ame</w>": 6061, "n`r": 6062, "b`at</w>": 6063, "ag`ent</w>": 6064, "ma`kers</w>": 6065, "\u00e2\u0122`\u00bc": 6066, "sec`tor</w>": 6067, "op`ti": 6068, "le`on": 6069, "di`et</w>": 6070, "pra`yer</w>": 6071, "hi`p</w>": 6072, "mi`r</w>": 6073, "le`x": 6074, "br`y": 6075, "an`a": 6076, "pas`sing</w>": 6077, "w`en": 6078, "reco`very</w>": 6079, "ak`i</w>": 6080, "po`pul": 6081, "res`ort</w>": 6082, "mar`ia</w>": 6083, "stu`ck</w>": 6084, "read`s</w>": 6085, "ti`er</w>": 6086, "perfe`c": 6087, "netfli`x</w>": 6088, "p`oo": 6089, "cham`p</w>": 6090, "o`c</w>": 6091, "re`duce</w>": 6092, "we`red</w>": 6093, "comm`ents</w>": 6094, "cla`im</w>": 6095, "acci`dent</w>": 6096, "s`ag": 6097, "h`ack": 6098, "sal`t</w>": 6099, "kin`da</w>": 6100, "k`iller</w>": 6101, "i`os</w>": 6102, "z`y": 6103, "ex`change</w>": 6104, "lec`ture</w>": 6105, "eng`er</w>": 6106, "ic`king</w>": 6107, "t`au": 6108, "reve`als</w>": 6109, "pri`son</w>": 6110, "z`om": 6111, "gh`an</w>": 6112, "u`l</w>": 6113, "jour`nal</w>": 6114, "i`ot</w>": 6115, "tr`in": 6116, "jon`a": 6117, "govern`or</w>": 6118, "cap`e</w>": 6119, "quar`ter</w>": 6120, "spec`tive</w>": 6121, "impre`ssive</w>": 6122, "bab`ies</w>": 6123, "t`x": 6124, "m`ill</w>": 6125, "o`y": 6126, "har`ri": 6127, "jo`int</w>": 6128, "su`e</w>": 6129, "collabor`ation</w>": 6130, "tren`d</w>": 6131, "revolu`tion</w>": 6132, "re`new": 6133, "alum`ni</w>": 6134, "ge`tt": 6135, "sh`ell</w>": 6136, "sun`day": 6137, "ent`u": 6138, "ni`c</w>": 6139, "donald`trump</w>": 6140, "block`chain</w>": 6141, "paci`fic</w>": 6142, "expla`ins</w>": 6143, "sp`y</w>": 6144, "ad`voc": 6145, "par`adi": 6146, "to`f": 6147, "star`ring</w>": 6148, "p`av": 6149, "fe`ed": 6150, "br`ac": 6151, "smo`ke</w>": 6152, "ham`p": 6153, "y`am": 6154, "to`kyo</w>": 6155, "si`mon</w>": 6156, "d`h": 6157, "e`ffici": 6158, "phys`ical</w>": 6159, "n`j</w>": 6160, "ell`i</w>": 6161, "s`low": 6162, "gradu`ate</w>": 6163, "americ`ans</w>": 6164, "ti`fy</w>": 6165, "f`red</w>": 6166, "ap`ore</w>": 6167, "fin`ds</w>": 6168, "rob`in": 6169, "we`t</w>": 6170, "not`ice</w>": 6171, "se`mi</w>": 6172, "un`ve": 6173, "k`om": 6174, "pil`ot</w>": 6175, "scre`ening</w>": 6176, "da`ily": 6177, "\u00f0\u0141\u0134`\u0139</w>": 6178, "roy`al": 6179, "sp`a</w>": 6180, "vo`tes</w>": 6181, "n`ag": 6182, "wh`ate": 6183, "att`ending</w>": 6184, "exper`im": 6185, "ad`dition</w>": 6186, "k`ate</w>": 6187, "sto`l</w>": 6188, "m`ali": 6189, "foo`t": 6190, "chri`st</w>": 6191, "ch`an</w>": 6192, "de`e</w>": 6193, "lic`en": 6194, "glo`bal": 6195, "mo`ore</w>": 6196, "ti`a</w>": 6197, "bri`gh": 6198, "myster`y</w>": 6199, "y`ay</w>": 6200, "\u00e2\u013f\u00a4\u00ef\u00b8\u0131`\u00e2\u013f\u00a4\u00ef\u00b8\u0131": 6201, "cre`ati": 6202, "me`chan": 6203, "clo`ck</w>": 6204, "di`c</w>": 6205, "\u00e2\u0122`\u0136": 6206, "pp`er": 6207, "al`ph": 6208, "through`out</w>": 6209, "al`low</w>": 6210, "re`sources</w>": 6211, "selec`tion</w>": 6212, "ham`il": 6213, "bb`q</w>": 6214, "aa`aa": 6215, "virgin`ia</w>": 6216, "dis`ney": 6217, "en`g</w>": 6218, "so`red</w>": 6219, "drin`ks</w>": 6220, "f`ancy</w>": 6221, "consi`der</w>": 6222, "end`a</w>": 6223, "jan`e</w>": 6224, "hand`made</w>": 6225, "du`l": 6226, "on`tari": 6227, "i`us</w>": 6228, "s`ville</w>": 6229, "color`ado</w>": 6230, "whate`ver</w>": 6231, "whe`el</w>": 6232, "promis`e</w>": 6233, "ne`ver": 6234, "desig`ns</w>": 6235, "ab`ly</w>": 6236, "sex`ual</w>": 6237, "vanc`ou": 6238, "at`i</w>": 6239, "con`vention</w>": 6240, "cul`tural</w>": 6241, "sing`apore</w>": 6242, "pro`mo</w>": 6243, "load`ed</w>": 6244, "gla`sgo": 6245, "pp`l</w>": 6246, "n`oo": 6247, "ke`e</w>": 6248, "ste`m</w>": 6249, "men`tion</w>": 6250, "i`do": 6251, "cru`ise</w>": 6252, "ri`ding</w>": 6253, "be`comes</w>": 6254, "be`y</w>": 6255, "\u00e2\u013c\u00bd`\u00ef\u00b8\u0131</w>": 6256, "tw`in</w>": 6257, "dedic`ated</w>": 6258, "na`sh": 6259, "de`si": 6260, "work`out</w>": 6261, "jen`ni": 6262, "i`v": 6263, "grou`ps</w>": 6264, "rela`x": 6265, "pho`eni": 6266, "li`ft</w>": 6267, "mix`ed</w>": 6268, "m`ck": 6269, "p`c": 6270, "mu`st": 6271, "me`tro</w>": 6272, "ci`es</w>": 6273, "y`ar": 6274, "a`im": 6275, "ang`er</w>": 6276, "i`e": 6277, "rec`y": 6278, "marri`ed</w>": 6279, "dro`pped</w>": 6280, "eng`ag": 6281, "le`st</w>": 6282, "ambassad`or</w>": 6283, "op`h": 6284, "de`s": 6285, "w`ick": 6286, "assi`stant</w>": 6287, "nat`ur": 6288, "fa`il</w>": 6289, "l`td</w>": 6290, "shor`t": 6291, "k`ap": 6292, "sha`w</w>": 6293, "bi`gger</w>": 6294, "rema`ins</w>": 6295, "crit`ical</w>": 6296, "sur`vey</w>": 6297, "co`verage</w>": 6298, "er`son</w>": 6299, "win`d": 6300, "n`b</w>": 6301, "bil`ly</w>": 6302, "let`es</w>": 6303, "ac`ts</w>": 6304, "jim`my</w>": 6305, "at`lan": 6306, "al`and</w>": 6307, "t`c": 6308, "import`ance</w>": 6309, "dam`age</w>": 6310, "f`g</w>": 6311, "stor`age</w>": 6312, "tw`t</w>": 6313, "bon`d</w>": 6314, "bal`ance</w>": 6315, "cr`ying</w>": 6316, "pu`ppy</w>": 6317, "vo`te": 6318, "pu`sh</w>": 6319, "\u00f0\u0141\u0134`\u013e": 6320, "pol`y": 6321, "me`l</w>": 6322, "lon`don": 6323, "terr`ori": 6324, "effec`tive</w>": 6325, "corpor`ate</w>": 6326, "atl`anta</w>": 6327, "jac`o": 6328, "nas`a</w>": 6329, "gre`ek</w>": 6330, "sen`ate</w>": 6331, "i`sh": 6332, "ev`a</w>": 6333, "intellig`ence</w>": 6334, "effor`ts</w>": 6335, "al`co": 6336, "k`un": 6337, "h`all": 6338, "di`ag": 6339, "claim`s</w>": 6340, "fir`st": 6341, "h`b": 6342, "ba`e</w>": 6343, "v`ul": 6344, "pu`ll</w>": 6345, "\u00c2`\u00b0</w>": 6346, "se`par": 6347, "spe`ed": 6348, "vic`ti": 6349, "on`thisday</w>": 6350, "audi`ence</w>": 6351, "r`ates</w>": 6352, "te`ach</w>": 6353, "fil`ming</w>": 6354, "bu`sh</w>": 6355, "son`g": 6356, "y`um": 6357, "br`un": 6358, "ra`ine</w>": 6359, "aw`a</w>": 6360, "par`ks</w>": 6361, "\u00f0`\u013f": 6362, "ra`bb": 6363, "ra`ch": 6364, "ra`id</w>": 6365, "reach`ed</w>": 6366, "ra`il</w>": 6367, "mo`ves</w>": 6368, "selec`ted</w>": 6369, "fr`i</w>": 6370, "ra`ising</w>": 6371, "om`y</w>": 6372, "st`ones</w>": 6373, "su`k</w>": 6374, "franc`isco</w>": 6375, "cas`es</w>": 6376, "cap`it": 6377, "con`fu": 6378, "w`tf</w>": 6379, "po`ke": 6380, "equip`ment</w>": 6381, "gre`g": 6382, "ess`ential</w>": 6383, "off`ering</w>": 6384, "ne`x": 6385, "pi`es</w>": 6386, "be`c": 6387, "cre`ation</w>": 6388, "chair`man</w>": 6389, "cro`wn</w>": 6390, "w`al</w>": 6391, "john`ny</w>": 6392, "shi`ft</w>": 6393, "ne`ck</w>": 6394, "ban`g</w>": 6395, "bir`d": 6396, "\u00f0\u0141\u013a`\u0131</w>": 6397, "du`ck</w>": 6398, "re`serve</w>": 6399, "de`pu": 6400, "ma`sters</w>": 6401, "over`all</w>": 6402, "no`tic": 6403, "ju`ice</w>": 6404, "sne`ak</w>": 6405, "che`er</w>": 6406, "cla`sses</w>": 6407, "eag`les</w>": 6408, "n`ca": 6409, "car`pet</w>": 6410, "ci`vil": 6411, "coach`es</w>": 6412, "har`ris</w>": 6413, "u`ps</w>": 6414, "b`alls</w>": 6415, "dec`or</w>": 6416, "mar`tin": 6417, "ro`s</w>": 6418, "v`ice</w>": 6419, "announ`cement</w>": 6420, "who`se</w>": 6421, "ti`gers</w>": 6422, "ste`red</w>": 6423, "c`ts</w>": 6424, "dr`am": 6425, "ste`el": 6426, "youn`g": 6427, "inst`all": 6428, "supp`o": 6429, "recor`ding</w>": 6430, "de`ck</w>": 6431, "se`ats</w>": 6432, "l`der</w>": 6433, "ang`le</w>": 6434, "bo`t</w>": 6435, "sty`les</w>": 6436, "elec`tions</w>": 6437, "for`tun": 6438, "n`ab": 6439, "but`ter</w>": 6440, "ari`an</w>": 6441, "ka`sh": 6442, "in`ner</w>": 6443, "ou`red</w>": 6444, "be`ast</w>": 6445, "we`i": 6446, "ic`onic</w>": 6447, "exper`ts</w>": 6448, "ne`cess": 6449, "b`eng": 6450, "jam`es": 6451, "li`a</w>": 6452, "gre`ece</w>": 6453, "\u00f0\u0141\u0135`\u00b7": 6454, "\u00f0\u0141\u013a`\u0123": 6455, "good`bye</w>": 6456, "m`itch": 6457, "tw`ice</w>": 6458, "mumb`ai</w>": 6459, "ste`am</w>": 6460, "ru`sh</w>": 6461, "med`al</w>": 6462, "ne`tt</w>": 6463, "fashi`on": 6464, "t`ar</w>": 6465, "r`s": 6466, "sav`ing</w>": 6467, "ric`ul": 6468, "l`m": 6469, "sleep`ing</w>": 6470, "brook`lyn</w>": 6471, "mis`s": 6472, "sen`ding</w>": 6473, "disco`vered</w>": 6474, "sp`here</w>": 6475, "of`theday</w>": 6476, "k`icks</w>": 6477, "missi`ons</w>": 6478, "w`right</w>": 6479, "er`n": 6480, "ght`ly</w>": 6481, "i`ous</w>": 6482, "mel`bourne</w>": 6483, "star`tu": 6484, "mo`ved</w>": 6485, "car`ry</w>": 6486, "d`ak": 6487, "ag`ues</w>": 6488, "bel`gi": 6489, "e`ma": 6490, "way`ne</w>": 6491, "do`t</w>": 6492, "er`ie</w>": 6493, "pe`l</w>": 6494, "it`unes</w>": 6495, "matthe`w</w>": 6496, "no`body</w>": 6497, "est`ab": 6498, "cal`m</w>": 6499, "win`ds</w>": 6500, "lu`c": 6501, "prep`are</w>": 6502, "tren`ds</w>": 6503, "exerc`ise</w>": 6504, "adv`ant": 6505, "\u00f0\u0141\u0134`\u00af</w>": 6506, "athle`tics</w>": 6507, "app`s</w>": 6508, "c`tions</w>": 6509, "adv`ance</w>": 6510, "laun`ches</w>": 6511, "litt`le": 6512, "real`donaldtrump</w>": 6513, "eliza`beth</w>": 6514, "carol`ina</w>": 6515, "hu`b</w>": 6516, "hi`dden</w>": 6517, "n`w</w>": 6518, "us`er</w>": 6519, "pol`l</w>": 6520, "great`er</w>": 6521, "mo`st": 6522, "f`ed</w>": 6523, "p`at</w>": 6524, "life`style</w>": 6525, "s`ati": 6526, "sco`res</w>": 6527, "marri`age</w>": 6528, "l`r</w>": 6529, "aven`ue</w>": 6530, "de`serve</w>": 6531, "ri`f": 6532, "\u00f0\u0141`\u0139": 6533, "wat`ch": 6534, "champion`ships</w>": 6535, "gr`ay</w>": 6536, "en`ni": 6537, "cot`ton</w>": 6538, "g`om": 6539, "whe`re": 6540, "pack`age</w>": 6541, "su`m": 6542, "ab`solu": 6543, "new`ly</w>": 6544, "foo`ds</w>": 6545, "ty`ler</w>": 6546, "assemb`ly</w>": 6547, "musli`m</w>": 6548, "ban`k": 6549, "re`memb": 6550, "op`tions</w>": 6551, "produc`er</w>": 6552, "land`o</w>": 6553, "fun`ds</w>": 6554, "u`pper</w>": 6555, "shad`ow</w>": 6556, "pro`gre": 6557, "co`p</w>": 6558, "ing`e</w>": 6559, "leg`s</w>": 6560, "detro`it</w>": 6561, "hill`ary</w>": 6562, "jo`se</w>": 6563, "gi`ants</w>": 6564, "sou`p</w>": 6565, "sustain`able</w>": 6566, "t`us</w>": 6567, "clo`thes</w>": 6568, "roc`king</w>": 6569, "n`z</w>": 6570, "min`ne": 6571, "mat`eri": 6572, "bru`ce</w>": 6573, "ear`t": 6574, "ca`sting</w>": 6575, "independ`ent</w>": 6576, "thou`sands</w>": 6577, "ta`h</w>": 6578, "de`cl": 6579, "veter`ans</w>": 6580, "li`ons</w>": 6581, "wra`p</w>": 6582, "\u00e2\u0122`\u00a6": 6583, "de`ss": 6584, "bl`ing</w>": 6585, "st`ine</w>": 6586, "e`ggs</w>": 6587, "o`on</w>": 6588, "clo`sing</w>": 6589, "z`ay": 6590, "at`t</w>": 6591, "bac`on</w>": 6592, "fa`il": 6593, "ariz`ona</w>": 6594, "de`pre": 6595, "gho`st</w>": 6596, "new`sp": 6597, "w`ers</w>": 6598, "vi`p</w>": 6599, "li`ked</w>": 6600, "id`ent": 6601, "volunte`er</w>": 6602, "ad`ult</w>": 6603, "pu`pp": 6604, "cir`cle</w>": 6605, "mat`erial</w>": 6606, "degre`e</w>": 6607, "gro`wn</w>": 6608, "boo`m</w>": 6609, "calend`ar</w>": 6610, "su`r</w>": 6611, "vie`wing</w>": 6612, "ath`letes</w>": 6613, "ch`and": 6614, "re`ll</w>": 6615, "asi`an</w>": 6616, "en`tr": 6617, "vol`ley": 6618, "victi`ms</w>": 6619, "bo`dy": 6620, "m`ama</w>": 6621, "trans`fer</w>": 6622, "ge`ek</w>": 6623, "in`dic": 6624, "sav`ed</w>": 6625, "ma`i": 6626, "g`ent</w>": 6627, "it`s": 6628, "loun`ge</w>": 6629, "k`ol": 6630, "the`ory</w>": 6631, "situ`ation</w>": 6632, "is`lands</w>": 6633, "ar`th": 6634, "z`oo</w>": 6635, "floo`d</w>": 6636, "vi`ously</w>": 6637, "show`ed</w>": 6638, "parliam`ent</w>": 6639, "ch`ev": 6640, "el`ine</w>": 6641, "at`trac": 6642, "ab`ad</w>": 6643, "ta`il": 6644, "h`rs</w>": 6645, "lu`s</w>": 6646, "por`tu": 6647, "gor`y</w>": 6648, "provi`des</w>": 6649, "to`ys</w>": 6650, "de`ath": 6651, "in`fe": 6652, "an`ce": 6653, "g`le": 6654, "li`am</w>": 6655, "lo`ver</w>": 6656, "hu`d": 6657, "dv`d</w>": 6658, "reve`aled</w>": 6659, "g`w": 6660, "re`ment</w>": 6661, "ca`the": 6662, "l`ying</w>": 6663, "ra`dio": 6664, "der`by</w>": 6665, "stor`s</w>": 6666, "che`mi": 6667, "hosp`it": 6668, "\u00e2\u013e`\u00a8": 6669, "'`:</w>": 6670, "ilo`ve": 6671, "le`mon</w>": 6672, "re`public</w>": 6673, "s`ni": 6674, "ne`ss": 6675, "do`or": 6676, "re`action</w>": 6677, "pre`gn": 6678, "fla`v": 6679, "schol`ar": 6680, "spo`tify</w>": 6681, "is`ation</w>": 6682, "vis`ual</w>": 6683, "aw`are</w>": 6684, "spon`sored</w>": 6685, "jo`ke</w>": 6686, "less`ons</w>": 6687, "leg`is": 6688, "lo`ck": 6689, "si`mil": 6690, "\u00f0\u0141\u013a`\u012d</w>": 6691, "kin`d": 6692, "la`y": 6693, "ma`h": 6694, "ho`ping</w>": 6695, "vancou`ver</w>": 6696, "as`er</w>": 6697, "clean`ing</w>": 6698, "gal`a</w>": 6699, "thre`at</w>": 6700, "la`p": 6701, "ach`e</w>": 6702, "ro`mance</w>": 6703, "ex`pen": 6704, "re`post</w>": 6705, "z`am": 6706, "e`pi": 6707, "mir`ror</w>": 6708, "o`ak</w>": 6709, "ad`ul": 6710, "bat`man</w>": 6711, "s`lu": 6712, "l`c</w>": 6713, "vie`wed</w>": 6714, "re`views</w>": 6715, "d`ates</w>": 6716, "indone`sia</w>": 6717, "acti`vi": 6718, "off`en": 6719, "lea`f</w>": 6720, "i`si": 6721, "ag`ricul": 6722, "costu`me</w>": 6723, "s`ites</w>": 6724, "spir`itu": 6725, "appear`ance</w>": 6726, "ir`y</w>": 6727, "st`air": 6728, "applic`ation</w>": 6729, "spec`tac": 6730, "ic`ity</w>": 6731, "ski`es</w>": 6732, "hand`le</w>": 6733, "pun`k</w>": 6734, "paradi`se</w>": 6735, "t`n</w>": 6736, "de`al": 6737, "provi`ding</w>": 6738, "do`c</w>": 6739, "recei`ving</w>": 6740, "bre`w</w>": 6741, "micro`soft</w>": 6742, "\u00c3`\u00b6": 6743, "fer`r": 6744, "me`tro": 6745, "th`ail": 6746, "y`um</w>": 6747, "car`ter</w>": 6748, "\u00c3`\u00a1": 6749, "gent`le": 6750, "bre`aks</w>": 6751, "coo`per": 6752, "show`case</w>": 6753, "cu`tting</w>": 6754, "egy`pt</w>": 6755, "bab`y": 6756, "semin`ar</w>": 6757, "gl`ori": 6758, "ss`on</w>": 6759, "fa`ve</w>": 6760, "re`hear": 6761, "lo`tte</w>": 6762, "la`dy": 6763, "al`as": 6764, "pre`p</w>": 6765, "deli`vered</w>": 6766, "nu`clear</w>": 6767, "ir`o</w>": 6768, "engag`ement</w>": 6769, "at`ta": 6770, "con`ven": 6771, "z`an": 6772, "gl`ory</w>": 6773, "hol`ds</w>": 6774, "busine`sses</w>": 6775, "str`ange</w>": 6776, "sch`e</w>": 6777, "it`self</w>": 6778, "gra`d</w>": 6779, "mar`kets</w>": 6780, "f`alling</w>": 6781, "st`ats</w>": 6782, "ge`on</w>": 6783, "bu`dd": 6784, "li`s": 6785, "she`et</w>": 6786, "thi`si": 6787, "co`lo": 6788, "deser`t</w>": 6789, "regi`stration</w>": 6790, "ig`n": 6791, "expla`in</w>": 6792, "inter`ior</w>": 6793, "la`ws</w>": 6794, "writ`ers</w>": 6795, "spr`ings</w>": 6796, "k`r": 6797, "fri`ed</w>": 6798, "blo`om": 6799, "inf`ra": 6800, "a`o": 6801, "cre`d": 6802, "pa`st": 6803, "line`up</w>": 6804, "bo`o</w>": 6805, "bre`a": 6806, "boo`ts</w>": 6807, "celebr`ity</w>": 6808, "att`acks</w>": 6809, "bro`ok</w>": 6810, "ev`es</w>": 6811, "ex`cu": 6812, "cher`ry</w>": 6813, "oo`p</w>": 6814, "fas`cin": 6815, "boy`friend</w>": 6816, "se`as": 6817, "n`ine</w>": 6818, "effec`ts</w>": 6819, "po`wered</w>": 6820, "k`ha": 6821, "\u00f0\u0141\u013a`\u0122</w>": 6822, "sh`out": 6823, "con`dition</w>": 6824, "i`j": 6825, "her`o": 6826, "enter`pri": 6827, "win`ter": 6828, "applic`ations</w>": 6829, "sho`e</w>": 6830, "g`el": 6831, "batt`le": 6832, "pro`grams</w>": 6833, "w`art</w>": 6834, "\u00f0\u0141\u0134`\u00a5</w>": 6835, "ra`p</w>": 6836, "ho`l</w>": 6837, "dang`erous</w>": 6838, "di`a": 6839, "coun`ter</w>": 6840, "ric`s</w>": 6841, "i`or": 6842, "k`night</w>": 6843, "co`at</w>": 6844, "emo`tional</w>": 6845, "at`ures</w>": 6846, "d`as</w>": 6847, "whe`el": 6848, "fore`cast</w>": 6849, "tran`sport</w>": 6850, "glasgo`w</w>": 6851, "king`dom</w>": 6852, "prepar`ing</w>": 6853, "im`medi": 6854, "ff`in</w>": 6855, "awar`ded</w>": 6856, "prin`ting</w>": 6857, "ro`man</w>": 6858, "fight`ers</w>": 6859, "any`more</w>": 6860, "bel`t</w>": 6861, "p`ine</w>": 6862, "win`e": 6863, "x`i</w>": 6864, "employe`es</w>": 6865, "logi`es</w>": 6866, "al`led</w>": 6867, "de`mo</w>": 6868, "birth`day": 6869, "ange`les</w>": 6870, "lo`g</w>": 6871, "dri`vers</w>": 6872, "neck`lace</w>": 6873, "k`ath": 6874, "s`it": 6875, "athle`te</w>": 6876, "ef`s</w>": 6877, "s`burg</w>": 6878, "pur`pose</w>": 6879, "resi`stance</w>": 6880, "rele`ases</w>": 6881, "t`is</w>": 6882, "vari`ous</w>": 6883, "deli`ver</w>": 6884, "ch`al": 6885, "s`anc": 6886, "opp`o": 6887, "cra`w": 6888, "neu`ro": 6889, "dr`a</w>": 6890, "suppor`ters</w>": 6891, "sna`p</w>": 6892, "diffic`ult</w>": 6893, "swe`ar</w>": 6894, "logi`st</w>": 6895, "pa`th": 6896, "attemp`t</w>": 6897, "\u00e0`\u00a5": 6898, "swim`ming</w>": 6899, "ste`ve": 6900, "hur`t</w>": 6901, "inclu`ded</w>": 6902, "b`ap": 6903, "wa`re": 6904, "\u00f0\u0141\u0134`\u012d</w>": 6905, "end`ers</w>": 6906, "ja`ke</w>": 6907, "le`eds</w>": 6908, "cli`mb": 6909, "l`b</w>": 6910, "im`ple": 6911, "li`sa</w>": 6912, "clo`thing</w>": 6913, "\u00f0\u0141\u013a`\u0130": 6914, "d`t</w>": 6915, "com`pla": 6916, "sw`ing</w>": 6917, "stra`w": 6918, "v`als</w>": 6919, "k`le</w>": 6920, "us`ers</w>": 6921, "stor`m": 6922, "cu`ts</w>": 6923, "ontari`o</w>": 6924, "p`an</w>": 6925, "hand`some</w>": 6926, "i`ow": 6927, "ar`gu": 6928, "chec`king</w>": 6929, "scotti`sh</w>": 6930, "\u0136`\u00ef\u00b8\u0131</w>": 6931, "si`er</w>": 6932, "em`ma</w>": 6933, "po`d</w>": 6934, "patter`n</w>": 6935, "de`sh</w>": 6936, "en`h": 6937, "ed`ward</w>": 6938, "t`ing": 6939, "k`h</w>": 6940, "hal`f": 6941, "lincol`n</w>": 6942, "mo`ther": 6943, "al`leg": 6944, "r`c</w>": 6945, "volley`ball</w>": 6946, "d`n</w>": 6947, "g`ay": 6948, "all`y": 6949, "le`ton</w>": 6950, "gro`ve</w>": 6951, "l`oud</w>": 6952, "adv`anced</w>": 6953, "re`spec": 6954, "cli`ent</w>": 6955, "supre`me</w>": 6956, "thail`and</w>": 6957, "ho`w": 6958, "gi`g</w>": 6959, "to`i": 6960, "do`t": 6961, "dol`lar</w>": 6962, "\u00f0\u0141\u0133`\u0129</w>": 6963, "p`it</w>": 6964, "r`b</w>": 6965, "h`n</w>": 6966, "produc`ed</w>": 6967, "gg`ers</w>": 6968, "\u00e2\u0128`\u0134</w>": 6969, "ml`b</w>": 6970, "can`vas</w>": 6971, "fin`eart": 6972, "us`d</w>": 6973, "in`the": 6974, "p`son</w>": 6975, "actu`al</w>": 6976, "s`l</w>": 6977, "t`b</w>": 6978, "ip`ad</w>": 6979, "en`sure</w>": 6980, "u`mb": 6981, "w`d</w>": 6982, "sk`a</w>": 6983, "mar`s</w>": 6984, "k`end": 6985, "f`eli": 6986, "th`ing": 6987, "count`down</w>": 6988, "absolu`te</w>": 6989, "r`out": 6990, "dra`l</w>": 6991, "p`y</w>": 6992, "inju`red</w>": 6993, "min`t</w>": 6994, "hun`ting</w>": 6995, "mm`er</w>": 6996, "s`age</w>": 6997, "li`gh": 6998, "ac`ity</w>": 6999, "ex`pan": 7000, "mur`ray</w>": 7001, "ar`o": 7002, "sec`ure</w>": 7003, "four`th</w>": 7004, "eag`le</w>": 7005, "reli`ef</w>": 7006, "st`akes</w>": 7007, "industri`al</w>": 7008, "clar`k</w>": 7009, "under`standing</w>": 7010, "see`m</w>": 7011, "pl`enty</w>": 7012, "sil`ver": 7013, "cla`u": 7014, "thre`at": 7015, "sa`il": 7016, "pro`duce</w>": 7017, "ab`str": 7018, "is`is</w>": 7019, "b`r</w>": 7020, "eng`ers</w>": 7021, "wor`ry</w>": 7022, "bie`ber</w>": 7023, "s`j": 7024, "just`in": 7025, "reali`ze</w>": 7026, "ky`le</w>": 7027, "esp`n</w>": 7028, "fil`ter</w>": 7029, "s`ch</w>": 7030, "ty`pes</w>": 7031, "game`dev</w>": 7032, "d`ing": 7033, "twit`ter": 7034, "soldi`ers</w>": 7035, "p`om": 7036, "car`bon</w>": 7037, "y`ards</w>": 7038, "child`hood</w>": 7039, "ri`ed</w>": 7040, "ke`l</w>": 7041, "ele`ph": 7042, "t`ons</w>": 7043, "key`note</w>": 7044, "qui`et</w>": 7045, "wi`re": 7046, "po`sting</w>": 7047, "is`sa</w>": 7048, "repre`senting</w>": 7049, "bac`ks</w>": 7050, "alex`ander</w>": 7051, "celebr`ates</w>": 7052, "ta`ining</w>": 7053, "|`|</w>": 7054, "ch`or": 7055, "esc`ape</w>": 7056, "pe`ek</w>": 7057, "ti`ves</w>": 7058, "fiel`d": 7059, "ssi`e</w>": 7060, "im`pac": 7061, "spons`or</w>": 7062, "r`c": 7063, "we`dd": 7064, "cann`ab": 7065, "si`des</w>": 7066, "trac`ks</w>": 7067, "com`par": 7068, "con`trac": 7069, "techn`ical</w>": 7070, "bi`ble</w>": 7071, "expl`oring</w>": 7072, "sh`are": 7073, "tra`v": 7074, "n`ate</w>": 7075, "ill`o</w>": 7076, "sc`ru": 7077, "m`ingham</w>": 7078, "gun`s</w>": 7079, "of`the": 7080, "sh`ame</w>": 7081, "se`es</w>": 7082, "ca`tho": 7083, "ac`cess": 7084, "ce`l</w>": 7085, "repor`ted</w>": 7086, "\u00c2`\u00bb</w>": 7087, "mari`o</w>": 7088, "p`ad</w>": 7089, "hope`fully</w>": 7090, "ou`se</w>": 7091, "y`on</w>": 7092, "disapp`o": 7093, "ol`o</w>": 7094, "p`itt": 7095, "pa`c</w>": 7096, "ga`p</w>": 7097, "cru`sh</w>": 7098, "s`g</w>": 7099, "k`le": 7100, "ge`m</w>": 7101, "emp`ire</w>": 7102, "dir`ty</w>": 7103, "a`is": 7104, "avi`ation</w>": 7105, "ze`aland</w>": 7106, "fac`ing</w>": 7107, "high`way</w>": 7108, "d`anny</w>": 7109, "spi`der</w>": 7110, "ot`ta": 7111, "\u00f0\u0141\u013a`\u0126</w>": 7112, "w`y</w>": 7113, "col`ours</w>": 7114, "in`fl": 7115, "co`sts</w>": 7116, "olym`pics</w>": 7117, "au`s</w>": 7118, "h`m</w>": 7119, "ho`ward</w>": 7120, "pas`ses</w>": 7121, "lau`ren</w>": 7122, "mu`sh": 7123, "op`in": 7124, "r`ho": 7125, "disc`ount</w>": 7126, "oper`ation</w>": 7127, "em`ily</w>": 7128, "mm`m</w>": 7129, "cham`ber</w>": 7130, "d`il": 7131, "to`yo": 7132, "shi`p": 7133, "sam`u": 7134, "pic`tured</w>": 7135, "un`ic": 7136, "po`l</w>": 7137, "keep`er</w>": 7138, "carto`on</w>": 7139, "st`en": 7140, "ig`nor": 7141, "n`ations</w>": 7142, "n`l</w>": 7143, "ta`sting</w>": 7144, "deta`il</w>": 7145, "offici`als</w>": 7146, "mo`tor</w>": 7147, "franc`is</w>": 7148, "ed`itor</w>": 7149, "\u00f0\u0141\u0133`\u0129": 7150, "pe`ts</w>": 7151, "rang`ers</w>": 7152, "t`g": 7153, "r`n</w>": 7154, "w`ri": 7155, "nic`hol": 7156, "i`se": 7157, "spo`ts</w>": 7158, "ani`e</w>": 7159, "chec`k": 7160, "tri`ple</w>": 7161, "ku`mar</w>": 7162, "spe`akers</w>": 7163, "ic`ing</w>": 7164, "pre`pared</w>": 7165, "ab`use</w>": 7166, "friend`ship</w>": 7167, "mon`th": 7168, "swi`m</w>": 7169, "air`e</w>": 7170, "sc`ent</w>": 7171, "hamil`ton</w>": 7172, "indi`an": 7173, "j`es": 7174, "yum`my</w>": 7175, "te`ars</w>": 7176, "da`wn</w>": 7177, "i`zed</w>": 7178, "worl`ds</w>": 7179, "\u00f0\u0141`\u0137": 7180, "b`illi": 7181, "st`one": 7182, "n`hs</w>": 7183, "ba`sic</w>": 7184, "p`or</w>": 7185, "st`le</w>": 7186, "ir`on": 7187, "ol`der</w>": 7188, "cle`vel": 7189, "e`ing</w>": 7190, "\u00f0\u0141\u013a\u012f\u00f0\u0141\u013a\u012f`\u00f0\u0141\u013a\u012f</w>": 7191, "prin`ts</w>": 7192, "fir`m</w>": 7193, "air`craft</w>": 7194, "fin`est</w>": 7195, "devel`op</w>": 7196, "aar`on</w>": 7197, "t`z": 7198, "gra`ham</w>": 7199, "own`ers</w>": 7200, "fo`li": 7201, "less`on</w>": 7202, "qu`es</w>": 7203, "bab`e</w>": 7204, "cra`ft": 7205, "ph`en": 7206, "ju`n</w>": 7207, "bir`mingham</w>": 7208, "v`ine</w>": 7209, "ll`er</w>": 7210, "i`an": 7211, "fineart`america</w>": 7212, "evol`u": 7213, "st`ab": 7214, "im`per": 7215, "war`d": 7216, "com`ic": 7217, "wi`z": 7218, "inv`ited</w>": 7219, "du`ke</w>": 7220, "mat`ch": 7221, "por`ts</w>": 7222, "ro`ger</w>": 7223, "diag`no": 7224, "ke`pt</w>": 7225, "te`st": 7226, "vis`u": 7227, "r`hy": 7228, "so`c</w>": 7229, "to`x": 7230, "b`aker</w>": 7231, "sur`face</w>": 7232, "co`vers</w>": 7233, "man`s</w>": 7234, "b`its</w>": 7235, "x`box</w>": 7236, "ff`le</w>": 7237, "n`an</w>": 7238, "gar`d": 7239, "h`art</w>": 7240, "wat`ers</w>": 7241, "v`illa</w>": 7242, "re`tro</w>": 7243, "light`ning</w>": 7244, "catho`lic</w>": 7245, "democr`acy</w>": 7246, "neigh`bor": 7247, "pen`n": 7248, "cr`an": 7249, "jona`than</w>": 7250, "la`ura</w>": 7251, "vi`bes</w>": 7252, "su`b</w>": 7253, "coach`ing</w>": 7254, "clear`ly</w>": 7255, "uk`raine</w>": 7256, "bra`ve</w>": 7257, "commit`ment</w>": 7258, "t`all</w>": 7259, "mar`t</w>": 7260, "ra`p": 7261, "mo`di</w>": 7262, "sco`tt": 7263, "bro`s</w>": 7264, "show`er</w>": 7265, "\u00f0\u0141\u0131`\u00be</w>": 7266, "\u00e2\u013a\u00ba`\u00ef\u00b8\u0131</w>": 7267, "cou`sin</w>": 7268, "appro`ach": 7269, "br`e</w>": 7270, "com`pos": 7271, "hil`ari": 7272, "phil`ly</w>": 7273, "g`ad": 7274, "quick`ly</w>": 7275, "ri`an</w>": 7276, "t`m</w>": 7277, "vir`tual</w>": 7278, "hou`ses</w>": 7279, "k`t</w>": 7280, "phoeni`x</w>": 7281, "w`ire</w>": 7282, "ff`y</w>": 7283, "b`unch</w>": 7284, "anc`ing</w>": 7285, "tal`e</w>": 7286, "snap`chat</w>": 7287, "star`ter</w>": 7288, "h`t</w>": 7289, "k`icking</w>": 7290, "ap`art</w>": 7291, "th`y": 7292, ")`!</w>": 7293, "blo`gger</w>": 7294, "it`z</w>": 7295, "com`fort</w>": 7296, "ang`els</w>": 7297, "w`ash</w>": 7298, "\"`:</w>": 7299, "ar`gent": 7300, "re`quest</w>": 7301, "hon`est": 7302, "mi`ghty</w>": 7303, "bo`bby</w>": 7304, "k`g</w>": 7305, "ro`l</w>": 7306, "thou`se</w>": 7307, "ex`po": 7308, "h`c</w>": 7309, "tab`les</w>": 7310, "mag`ical</w>": 7311, "po`sts</w>": 7312, "de`m</w>": 7313, "n`w": 7314, "or`lando</w>": 7315, "ab`er": 7316, "*`**</w>": 7317, "\u00f0\u0141\u013a`\u013e</w>": 7318, "environ`mental</w>": 7319, "trans`formation</w>": 7320, "mi`le": 7321, "w`ic": 7322, "hir`ing</w>": 7323, "ma`ine</w>": 7324, "bo`ar": 7325, "r`ying</w>": 7326, "ti`s": 7327, "nit`ure</w>": 7328, "twee`ted</w>": 7329, "anton`io</w>": 7330, "opin`ion</w>": 7331, "fin`ale</w>": 7332, "di`y</w>": 7333, "f`is": 7334, "th`in</w>": 7335, "trou`ble</w>": 7336, "le`go</w>": 7337, "fi`les</w>": 7338, "qu`art": 7339, "sp`a": 7340, "curren`cy</w>": 7341, "cli`mate": 7342, "fan`art</w>": 7343, "rail`way</w>": 7344, "sp`ace": 7345, "ban`ds</w>": 7346, "dani`el": 7347, "mo`tion</w>": 7348, "l`eng": 7349, "hol`der</w>": 7350, "oc`cu": 7351, "mar`ie</w>": 7352, "cathe`dral</w>": 7353, "bu`zz": 7354, "bi`es</w>": 7355, "nas`car</w>": 7356, "bm`w</w>": 7357, "bat`tery</w>": 7358, "char`lotte</w>": 7359, "doc`tor": 7360, "zz`le</w>": 7361, "se`ven": 7362, "in`san": 7363, "d`dy</w>": 7364, "st`en</w>": 7365, "lab`or</w>": 7366, "thr`illed</w>": 7367, "se`ren": 7368, "docu`mentary</w>": 7369, "wav`es</w>": 7370, "cer`tain</w>": 7371, "can`did": 7372, "allow`ed</w>": 7373, "ninten`do</w>": 7374, "star`wars</w>": 7375, "ta`p</w>": 7376, "home`made</w>": 7377, "d`les</w>": 7378, "ther`ing</w>": 7379, "bre`e": 7380, "emp`ty</w>": 7381, "pi`ano</w>": 7382, "pos`iti": 7383, "coun`try": 7384, "por`k</w>": 7385, "pu`ts</w>": 7386, "per`ry</w>": 7387, "m`atic</w>": 7388, "spot`light</w>": 7389, "ti`st</w>": 7390, "or`ities</w>": 7391, "we`alth</w>": 7392, "c`p": 7393, "bar`bar": 7394, "commit`ted</w>": 7395, "as`sau": 7396, "pro`fit</w>": 7397, "e`ight</w>": 7398, "hu`l": 7399, "fini`shing</w>": 7400, "run`ner</w>": 7401, "ss`o</w>": 7402, "insp`ec": 7403, "char`ged</w>": 7404, "christ`op": 7405, "lo`sing</w>": 7406, "co`al</w>": 7407, "ho`o</w>": 7408, "ele`v": 7409, "de`le": 7410, "mo`ham": 7411, "don`ation</w>": 7412, "c`able</w>": 7413, "clin`ic</w>": 7414, "j`in": 7415, "manag`ed</w>": 7416, "ter`ing</w>": 7417, "\u00e2`\u00ac": 7418, "ur`ban": 7419, "depu`ty</w>": 7420, "bb`er</w>": 7421, "bur`n": 7422, "acade`mic</w>": 7423, "o`tt</w>": 7424, "sta`ke</w>": 7425, "it`er": 7426, "sto`wn</w>": 7427, "ack`er</w>": 7428, "advent`ures</w>": 7429, "ad`ams</w>": 7430, "gre`g</w>": 7431, "pro`m</w>": 7432, "vo`l</w>": 7433, "ac`qu": 7434, "con`gre": 7435, "pa`int": 7436, "citiz`ens</w>": 7437, "c`all": 7438, "af`ford": 7439, "v`c</w>": 7440, "as`ks</w>": 7441, "the`tic</w>": 7442, "independ`ence</w>": 7443, "\u00e2`\u013d": 7444, "h`itting</w>": 7445, "bl`on": 7446, "fu`ture": 7447, "\u00e2`\u0131": 7448, "in`no": 7449, "gen`e</w>": 7450, "bo`ards</w>": 7451, "di`stance</w>": 7452, "se`t": 7453, "re`mem": 7454, "th`al": 7455, "pre`vent</w>": 7456, "l`ang": 7457, "ob`jec": 7458, "su`sp": 7459, "mat`t": 7460, "in`duc": 7461, "bor`o</w>": 7462, "pi`one": 7463, "re`di": 7464, "vir`tu": 7465, "prin`ted</w>": 7466, "sco`pe</w>": 7467, "shar`k</w>": 7468, "suc`ce": 7469, "a`stron": 7470, "il`legal</w>": 7471, "j`ag": 7472, "c`ting</w>": 7473, "ine`e</w>": 7474, "at`o": 7475, "rob`in</w>": 7476, "nutr`ition</w>": 7477, "b`f</w>": 7478, "du`tch</w>": 7479, "b`n</w>": 7480, "fur`niture</w>": 7481, "for`gotten</w>": 7482, "at`ar</w>": 7483, "ru`p": 7484, "hy`per": 7485, "bran`ch</w>": 7486, "communic`ation</w>": 7487, "degre`es</w>": 7488, "on`ia</w>": 7489, "un`cle</w>": 7490, "promo`te</w>": 7491, "or`che": 7492, "wi`i</w>": 7493, "j`s</w>": 7494, "but`ton</w>": 7495, "ma`jor": 7496, "c`bs</w>": 7497, "bri`stol</w>": 7498, "premi`um</w>": 7499, "ordin`ary</w>": 7500, "e`dit</w>": 7501, "m`g</w>": 7502, "we`ed</w>": 7503, "st`even</w>": 7504, ":`'": 7505, "gu`s</w>": 7506, "te`s": 7507, "cap`tured</w>": 7508, "dru`gs</w>": 7509, "do`w": 7510, "wr`ites</w>": 7511, "bi`shop</w>": 7512, "whe`els</w>": 7513, "ali`zation</w>": 7514, "disco`very</w>": 7515, "w`r</w>": 7516, "rach`el</w>": 7517, "ne`il</w>": 7518, "hy`dr": 7519, "cu`test</w>": 7520, "entreprene`ur</w>": 7521, "kore`an</w>": 7522, "ore`gon</w>": 7523, "ul`ty</w>": 7524, "perfec`tly</w>": 7525, "suppor`ted</w>": 7526, "histor`ical</w>": 7527, "t`wins</w>": 7528, "ell`y": 7529, "we`l</w>": 7530, "de`vil</w>": 7531, "in`come</w>": 7532, "scienti`sts</w>": 7533, "de`leg": 7534, "h`en</w>": 7535, "on`i</w>": 7536, "ic`ed</w>": 7537, "gi`o</w>": 7538, "cur`ry</w>": 7539, "reve`al</w>": 7540, "e`g": 7541, "buff`alo</w>": 7542, "n`ol": 7543, "op`era</w>": 7544, "camer`on</w>": 7545, "haha`haha": 7546, "j`ab": 7547, "gradu`ation</w>": 7548, "cra`ig</w>": 7549, "r`al": 7550, "i`f": 7551, "organi`zation</w>": 7552, "le`ge</w>": 7553, "g`ang": 7554, "su`d": 7555, "edin`burgh</w>": 7556, "l`ack</w>": 7557, "fli`es</w>": 7558, "g`ate": 7559, "thr`ones</w>": 7560, "q`b</w>": 7561, "the`real": 7562, "e`leg": 7563, "pp`in</w>": 7564, "c`les</w>": 7565, "jam`ie</w>": 7566, "tn`am</w>": 7567, "cryp`to": 7568, "ou`l</w>": 7569, "p`ages</w>": 7570, "a`se": 7571, "roo`ts</w>": 7572, "stu`pid</w>": 7573, "a`did": 7574, "boo`t</w>": 7575, "prote`in</w>": 7576, "s`ap": 7577, "si`um</w>": 7578, "su`s": 7579, "end`or": 7580, "fun`ction</w>": 7581, "don`t": 7582, "en`na</w>": 7583, "ch`y</w>": 7584, "squ`e</w>": 7585, "wor`ker</w>": 7586, "m`tv": 7587, "e`a</w>": 7588, "k`an</w>": 7589, "\u00f0\u0141\u0134`\u013c": 7590, "mu`s</w>": 7591, "professi`on": 7592, "t`to</w>": 7593, "oper`ations</w>": 7594, "al`lo": 7595, "c`tor</w>": 7596, "inv`ite</w>": 7597, "sc`and": 7598, "ou`th</w>": 7599, "z`im": 7600, "lin`ks</w>": 7601, "cli`ents</w>": 7602, "sam`sung</w>": 7603, "discu`sses</w>": 7604, "n`ell</w>": 7605, "ul`tra</w>": 7606, "some`where</w>": 7607, "ste`wart</w>": 7608, "ine`t</w>": 7609, "de`z</w>": 7610, "b`out</w>": 7611, "fac`tor</w>": 7612, "ti`an</w>": 7613, "tr`ans</w>": 7614, "jere`my</w>": 7615, "d`b</w>": 7616, "\u00f0\u0141\u0129`\u00ac": 7617, "or`n</w>": 7618, "develop`ing</w>": 7619, "spo`l</w>": 7620, "coo`per</w>": 7621, "ma`u": 7622, "rememb`ering</w>": 7623, "tre`k</w>": 7624, "famil`y": 7625, "sen`iors</w>": 7626, "fo`ster</w>": 7627, "att`ended</w>": 7628, "w`ing": 7629, "trans`form": 7630, "ele`mentary</w>": 7631, "hor`iz": 7632, "li`sting</w>": 7633, "malay`sia</w>": 7634, "it`ch</w>": 7635, "warri`or</w>": 7636, "philipp`ines</w>": 7637, "russ`ell</w>": 7638, "m`end": 7639, "initi`ative</w>": 7640, "cre`ep": 7641, "to`ps</w>": 7642, "br`iti": 7643, "a`ur": 7644, "shar`p</w>": 7645, "adverti`sing</w>": 7646, "ug`ly</w>": 7647, "achi`ev": 7648, "materi`als</w>": 7649, "bu`g</w>": 7650, "dev`ice</w>": 7651, "bon`us</w>": 7652, "fac`ility</w>": 7653, "col`e</w>": 7654, "nh`l</w>": 7655, "y`as": 7656, "plann`ed</w>": 7657, "pol`e</w>": 7658, "excell`ence</w>": 7659, "tr`ick</w>": 7660, "con`fl": 7661, "r`p</w>": 7662, "achi`eve</w>": 7663, "lo`an</w>": 7664, "swa`g</w>": 7665, "jess`ica</w>": 7666, "ho`we": 7667, "p`our</w>": 7668, "sc`u": 7669, "z`oo": 7670, "r`ated</w>": 7671, "dre`sses</w>": 7672, "re`bel": 7673, "mex`ican</w>": 7674, "co`ordin": 7675, "me`ss</w>": 7676, "atlan`tic</w>": 7677, "t`l</w>": 7678, "osc`ar</w>": 7679, "wal`ks</w>": 7680, "phar`mac": 7681, "investig`ation</w>": 7682, "...`#</w>": 7683, "cc`i</w>": 7684, "eas`ily</w>": 7685, "monday`motivation</w>": 7686, "y`ment</w>": 7687, "au`ti": 7688, "for`ced</w>": 7689, "ar`med</w>": 7690, "colle`agues</w>": 7691, "pap`ers</w>": 7692, "pro`per</w>": 7693, "sha`ke": 7694, "bu`c": 7695, "le`an</w>": 7696, "exhi`bit</w>": 7697, "e`vement</w>": 7698, "co`tt": 7699, "bi`z": 7700, "sp`er": 7701, "k`ent</w>": 7702, "sw`an": 7703, "/`@</w>": 7704, "girl`friend</w>": 7705, "haw`k</w>": 7706, "\u00e2\u013a`\u0122\u00ef\u00b8\u0131</w>": 7707, "mon`o": 7708, "\u00f0\u0141\u0134`\u013d": 7709, "stat`ue</w>": 7710, "\u00f0\u0141\u013a`\u00b3</w>": 7711, "ra`s</w>": 7712, "te`eth</w>": 7713, "preci`ous</w>": 7714, "t`ile</w>": 7715, "p`am": 7716, "swi`ft</w>": 7717, "v`ali": 7718, "no`se</w>": 7719, "dr`unk</w>": 7720, "experi`ences</w>": 7721, "come`back</w>": 7722, "gen`ius</w>": 7723, "wor`se</w>": 7724, "sh`ef": 7725, "ra`d</w>": 7726, "ed`it": 7727, "hon`our</w>": 7728, "au`spol</w>": 7729, "lar`ry</w>": 7730, "h`ire</w>": 7731, "gor`don</w>": 7732, "achi`evement</w>": 7733, "....`....": 7734, "su`icide</w>": 7735, "alter`native</w>": 7736, "su`p</w>": 7737, "sur`roun": 7738, "sha`ke</w>": 7739, "ke`ith</w>": 7740, "pe`pper</w>": 7741, "tur`k": 7742, "crimin`al</w>": 7743, "be`ck": 7744, "su`m</w>": 7745, "w`alls</w>": 7746, "cn`n</w>": 7747, "an`tic": 7748, "of`fe": 7749, "col`li": 7750, "win`es</w>": 7751, "high`light</w>": 7752, "hawa`ii</w>": 7753, "emb`ar": 7754, "l`fc</w>": 7755, "\u00f0\u0141\u0129`\u00ae": 7756, "m`v</w>": 7757, ">`>": 7758, "at`mo": 7759, "wor`d": 7760, "car`l": 7761, "shout`out</w>": 7762, "bre`wing</w>": 7763, "\u00ec`\u013f": 7764, "do`f": 7765, "s`ic": 7766, "hot`test</w>": 7767, "col`on": 7768, "hh`h</w>": 7769, "shu`t</w>": 7770, "low`ing</w>": 7771, "volu`me</w>": 7772, "apart`ment</w>": 7773, "agre`ement</w>": 7774, "de`stro": 7775, "we`e</w>": 7776, "religi`ous</w>": 7777, "iow`a</w>": 7778, "ro`d</w>": 7779, "land`ing</w>": 7780, "re`present": 7781, "\u00f0\u0141\u0135\u00b7`:</w>": 7782, "la`s": 7783, "usu`ally</w>": 7784, "h`l": 7785, "c`ac": 7786, "sal`v": 7787, "al`ong": 7788, "laugh`ing</w>": 7789, "be`ans</w>": 7790, "remin`ds</w>": 7791, "pha`se</w>": 7792, "some`body</w>": 7793, "ma`sk</w>": 7794, "ran`ked</w>": 7795, "dest`roy": 7796, "sc`i</w>": 7797, "\u00e2\u0122\u00bc`\u00ef\u00b8\u0131</w>": 7798, "gab`ri": 7799, "le`o</w>": 7800, "ro`a": 7801, "fa`iled</w>": 7802, "si`l</w>": 7803, "refuge`es</w>": 7804, "re`vi": 7805, "r`ing": 7806, "ber`ries</w>": 7807, "coo`kies</w>": 7808, "y`y</w>": 7809, "conserv`ation</w>": 7810, "sh`ab": 7811, "human`s</w>": 7812, "de`termin": 7813, "a`in": 7814, "ni`all</w>": 7815, "as`su": 7816, "mb`a</w>": 7817, "fro`m": 7818, "extre`me</w>": 7819, "vic`es</w>": 7820, "commer`ce</w>": 7821, "ght`ful</w>": 7822, "or`dered</w>": 7823, "suppor`ts</w>": 7824, "re`cap</w>": 7825, "v`or": 7826, "dro`pping</w>": 7827, "correc`t</w>": 7828, "pay`ing</w>": 7829, "mean`ing</w>": 7830, "n`j": 7831, "qui`z</w>": 7832, "\"`#</w>": 7833, "busine`ss": 7834, "\u00f0\u0141\u0129\u00ae`\u00f0\u0141\u0129": 7835, "indi`gen": 7836, "du`st</w>": 7837, "box`es</w>": 7838, "bl`ind</w>": 7839, "x`xx</w>": 7840, "zz`y</w>": 7841, "\u00f0\u0141\u0129\u00ac`\u00f0\u0141\u0129": 7842, "ss`els</w>": 7843, "s`ant": 7844, "dd`le</w>": 7845, "hilari`ous</w>": 7846, "desig`n": 7847, "wonder`ing</w>": 7848, "vehic`les</w>": 7849, "k`re": 7850, "ju`d": 7851, "rece`ption</w>": 7852, "par`ker</w>": 7853, "\u00c3`\u0143": 7854, "pri`vi": 7855, "hy`dro": 7856, "sof`tball</w>": 7857, "pol`lu": 7858, "lo`cked</w>": 7859, "ba`h": 7860, "e`ar</w>": 7861, "scri`pt</w>": 7862, "di`vi": 7863, "br`ace": 7864, "geor`ge": 7865, "the`ast</w>": 7866, "bel`o": 7867, "j`al": 7868, "tion`ary</w>": 7869, "dent`al</w>": 7870, "roc`ket</w>": 7871, "pur`ch": 7872, "sh`ak": 7873, "manufac`turing</w>": 7874, "e`z</w>": 7875, "it`is</w>": 7876, "con`cep": 7877, "tb`all": 7878, "ch`s</w>": 7879, "direc`ted</w>": 7880, "pra`yers</w>": 7881, "oo`k</w>": 7882, "phil`os": 7883, "vari`ety</w>": 7884, "che`ss</w>": 7885, "ser`ver</w>": 7886, "g`and": 7887, "bal`ti": 7888, "\u00f0\u0141\u0135`\u00b8": 7889, "sel`y</w>": 7890, "cru`z</w>": 7891, "spectac`ular</w>": 7892, "bur`ning</w>": 7893, "re`present</w>": 7894, "i`z</w>": 7895, "t`one</w>": 7896, "mer`ce": 7897, "h`ell": 7898, "bed`room</w>": 7899, "estab`li": 7900, "bo`l</w>": 7901, "com`mon": 7902, "\u00e3\u0125`\u00bb": 7903, "ab`or": 7904, "kit`ty</w>": 7905, "hei`ghts</w>": 7906, "re`pair</w>": 7907, "willi`am": 7908, "qu`ake</w>": 7909, "alab`ama</w>": 7910, "popul`ation</w>": 7911, "re`v": 7912, "re`tt</w>": 7913, "i`sts</w>": 7914, "n`ite</w>": 7915, "le`m</w>": 7916, "a`ha</w>": 7917, "clevel`and</w>": 7918, "r`m</w>": 7919, "po`ver": 7920, "ob`se": 7921, "mon`tre": 7922, "man`ia</w>": 7923, "\u00c2`\u00ae</w>": 7924, "con`ne": 7925, "car`ni": 7926, "sh`ah</w>": 7927, "f`y": 7928, "u`a</w>": 7929, "sc`or": 7930, "strugg`le</w>": 7931, "bo`b": 7932, "'`'</w>": 7933, "appro`pri": 7934, "deci`de</w>": 7935, "ff`ed</w>": 7936, "ca`ster</w>": 7937, "s`ort</w>": 7938, "hun`gry</w>": 7939, "dra`g": 7940, "\u00d8\u00a7`\u00d9": 7941, "gr`ounds</w>": 7942, "d`w": 7943, "sli`ghtly</w>": 7944, "car`din": 7945, "dead`line</w>": 7946, "bron`ze</w>": 7947, "web`in": 7948, "bar`ry</w>": 7949, "sil`ence</w>": 7950, "e`uro</w>": 7951, "op`tion</w>": 7952, "ear`n</w>": 7953, "\u00f0\u0141\u0134`\u0138": 7954, "howe`ver</w>": 7955, "na`ren": 7956, "na`ils</w>": 7957, "bath`room</w>": 7958, "v`ine": 7959, "ph`d</w>": 7960, "min`ing</w>": 7961, "gar`age</w>": 7962, "(`)</w>": 7963, "shou`lder</w>": 7964, "defe`at</w>": 7965, "di`r</w>": 7966, "o`v</w>": 7967, "liber`ty</w>": 7968, "ple`as": 7969, "x`on</w>": 7970, "com`pre": 7971, "a`v</w>": 7972, "j`in</w>": 7973, "ab`les</w>": 7974, "sil`ent</w>": 7975, "fam`ili": 7976, "vis`its</w>": 7977, "di`pl": 7978, "ha`bit": 7979, "milli`ons</w>": 7980, "regar`ding</w>": 7981, "innov`ative</w>": 7982, "sen`ator</w>": 7983, "r`ts</w>": 7984, "v`on</w>": 7985, "k`l": 7986, "wh`il": 7987, "requi`red</w>": 7988, "\u00e2\u013f`\u0126": 7989, "lu`v</w>": 7990, "presi`dential</w>": 7991, "po`cket</w>": 7992, "hun`dre": 7993, "sho`wn</w>": 7994, "fro`zen</w>": 7995, "to`ward</w>": 7996, "fa`st": 7997, "confi`dence</w>": 7998, "r`ough</w>": 7999, "indivi`dual</w>": 8000, "qu`et</w>": 8001, "\u00f0\u0141\u0131`\u00bd": 8002, "dom`e": 8003, "fi`fa</w>": 8004, "engine`er</w>": 8005, "z`en": 8006, "re`mix</w>": 8007, "\u00f0\u0141\u013a`\u0125</w>": 8008, "pl`ant": 8009, "min`or</w>": 8010, "robin`son</w>": 8011, "as`y": 8012, "pul`led</w>": 8013, "cer`tain": 8014, "potat`o</w>": 8015, "(`:</w>": 8016, "pre`s</w>": 8017, "oc`ca": 8018, "w`it</w>": 8019, "it`em</w>": 8020, "si`e": 8021, "d`ating</w>": 8022, "thom`pson</w>": 8023, "own`ed</w>": 8024, "an`u": 8025, "vi`e</w>": 8026, "te`dly</w>": 8027, "good`night</w>": 8028, "ex`cept</w>": 8029, "\u00f0\u0141\u012e`\u0141</w>": 8030, "ira`q</w>": 8031, "ki`e": 8032, "ren`ces</w>": 8033, "li`p</w>": 8034, "simil`ar</w>": 8035, "sau`di</w>": 8036, "vi`g": 8037, "arth`ur</w>": 8038, "pic`ks</w>": 8039, "mil`an</w>": 8040, "hon`da</w>": 8041, "ma`xi": 8042, "o`g</w>": 8043, "ste`st</w>": 8044, "ar`ch</w>": 8045, "analy`tics</w>": 8046, "ba`sti": 8047, "pear`l</w>": 8048, "ter`ry</w>": 8049, "hor`se": 8050, "ast`ro": 8051, "ac`ce": 8052, "laun`ching</w>": 8053, "inter`national": 8054, "s`no": 8055, "ta`sty</w>": 8056, "den`ver</w>": 8057, "ir`l</w>": 8058, "pe`te</w>": 8059, "tor`n": 8060, "advant`age</w>": 8061, "var`sity</w>": 8062, "\"`\"</w>": 8063, "sol`e</w>": 8064, "g`c": 8065, "lan`g</w>": 8066, "demon`str": 8067, "ol`ds</w>": 8068, "un`ity</w>": 8069, "ne`ts</w>": 8070, "insp`ire</w>": 8071, "cre`te</w>": 8072, "nash`ville</w>": 8073, "nel`son</w>": 8074, "e`ter": 8075, "wal`k": 8076, "hy`un</w>": 8077, "m`ack": 8078, "tre`as": 8079, "see`king</w>": 8080, "ra`ge</w>": 8081, "bru`sh</w>": 8082, "ab`and": 8083, "whil`st</w>": 8084, "co`con": 8085, "h`ong</w>": 8086, "shel`ter</w>": 8087, "i`p</w>": 8088, "possi`bly</w>": 8089, "so`o</w>": 8090, "it`ed": 8091, "\u00e2`\u0126": 8092, "rac`es</w>": 8093, "war`ming</w>": 8094, "qu`in": 8095, "tele`vision</w>": 8096, "mat`ches</w>": 8097, "ra`pi": 8098, "ment`al": 8099, "pal`m</w>": 8100, "jenni`fer</w>": 8101, "rol`ls</w>": 8102, "indi`ana</w>": 8103, "b`ars</w>": 8104, "cat`ching</w>": 8105, "resc`u": 8106, "candid`ates</w>": 8107, "fa`re": 8108, "\u00e2\u0142`\u0122</w>": 8109, "se`o</w>": 8110, "vie`tnam</w>": 8111, "alph`a</w>": 8112, "michel`le</w>": 8113, "visi`ble</w>": 8114, "re`gre": 8115, "wn`ed</w>": 8116, "app`le": 8117, "li`p": 8118, "f`fe</w>": 8119, "li`z": 8120, "york`shire</w>": 8121, "ha`il</w>": 8122, "se`asons</w>": 8123, "be`gan</w>": 8124, "m`d": 8125, "k`c</w>": 8126, "la`p</w>": 8127, "fascin`ating</w>": 8128, "hel`p": 8129, "ur`y": 8130, "u`ms</w>": 8131, "nu`ts</w>": 8132, "se`m": 8133, "along`side</w>": 8134, "bri`dge": 8135, "ori`al</w>": 8136, "o`ve": 8137, "world`cup</w>": 8138, "briti`sh": 8139, "comfor`table</w>": 8140, "i`ve</w>": 8141, "hot`els</w>": 8142, "fair`s</w>": 8143, "hor`ri": 8144, "so`x</w>": 8145, "d`ining</w>": 8146, "stre`am": 8147, "bar`ri": 8148, "ss`y</w>": 8149, "w`im": 8150, "ter`ms</w>": 8151, "v`u": 8152, "pe`re": 8153, "l`ens</w>": 8154, "wal`ked</w>": 8155, "r`or": 8156, "l`ars</w>": 8157, "shi`eld</w>": 8158, "dou`bt</w>": 8159, "pro`to": 8160, "cro`ssing</w>": 8161, "me`ant</w>": 8162, "medi`um</w>": 8163, "ad`ding</w>": 8164, "e`b</w>": 8165, "che`ap</w>": 8166, "fun`c": 8167, "pap`er": 8168, "bran`ds</w>": 8169, "ry`an": 8170, "feed`back</w>": 8171, "col`lins</w>": 8172, "un`known</w>": 8173, "tro`pical</w>": 8174, "sand`wich</w>": 8175, "fal`len</w>": 8176, "for`mu": 8177, "selec`t</w>": 8178, "lo`ads</w>": 8179, "answ`ers</w>": 8180, "or`i</w>": 8181, "mag`a</w>": 8182, "d`or</w>": 8183, "du`o</w>": 8184, "ali`e</w>": 8185, "dru`m</w>": 8186, "ur`i</w>": 8187, "de`er</w>": 8188, "sou`l": 8189, "sh`ut": 8190, "\u00e2\u013a`\u00ba</w>": 8191, "sto`len</w>": 8192, "don`ated</w>": 8193, "bu`zz</w>": 8194, "patri`ots</w>": 8195, "ha`l</w>": 8196, "na`sty</w>": 8197, "nomin`ated</w>": 8198, "mon`te": 8199, "ki`a</w>": 8200, "th`ri": 8201, "ing`u": 8202, "te`sts</w>": 8203, "pe`tro": 8204, "\u00f0\u0141\u0133`\u0133</w>": 8205, "ho`sts</w>": 8206, "ne`st</w>": 8207, "to`pic</w>": 8208, "pat`ch</w>": 8209, "m`my</w>": 8210, "hu`gh": 8211, "ab`ilities</w>": 8212, "ma`the": 8213, "s`miles</w>": 8214, "g`b": 8215, "ag`enda</w>": 8216, "insi`ghts</w>": 8217, "chi`p</w>": 8218, "ph`an": 8219, "fail`ure</w>": 8220, "dg`ers</w>": 8221, "ha`i": 8222, "signific`ant</w>": 8223, "sho`ck</w>": 8224, "ru`ral</w>": 8225, "gl`am": 8226, "figu`res</w>": 8227, "pot`us</w>": 8228, "o`ta</w>": 8229, "mini`stry</w>": 8230, "appe`ars</w>": 8231, "fe`ar": 8232, "r`h": 8233, "americ`an": 8234, "h`att": 8235, "son`y</w>": 8236, "fi`res</w>": 8237, "e`di": 8238, "n`ou": 8239, "e`qui": 8240, "wh`en": 8241, "univers`al</w>": 8242, "mad`ness</w>": 8243, "i`x</w>": 8244, "sculp`ture</w>": 8245, "b`ach</w>": 8246, "t`to": 8247, "swe`den</w>": 8248, "et`a</w>": 8249, "en`to</w>": 8250, "develop`ed</w>": 8251, "month`ly</w>": 8252, "ma`ps</w>": 8253, "ra`h</w>": 8254, "le`d": 8255, "del`ta</w>": 8256, "sa`ints</w>": 8257, "is`lam</w>": 8258, "ben`ch</w>": 8259, "fif`th</w>": 8260, "v`ard</w>": 8261, "so`cks</w>": 8262, "wel`coming</w>": 8263, "j`e</w>": 8264, "tur`ner</w>": 8265, "v`b</w>": 8266, "ad`i</w>": 8267, "nor`way</w>": 8268, "ad`y</w>": 8269, "hurric`ane</w>": 8270, "por`sche</w>": 8271, "tra`dition</w>": 8272, "ex`am</w>": 8273, "newsp`aper</w>": 8274, "lu`ci": 8275, "a`ver": 8276, "ide`al</w>": 8277, "d`na</w>": 8278, "madi`son</w>": 8279, "\u00f0\u0141`\u00a7": 8280, "wit`ness</w>": 8281, "ac`ou": 8282, "insi`ght</w>": 8283, "si`mon": 8284, "robo`t</w>": 8285, "sna`ke</w>": 8286, "n`bc</w>": 8287, "ac`o</w>": 8288, "ro`ss": 8289, "sh`ment</w>": 8290, "religi`on</w>": 8291, "ch`ann": 8292, "in`su": 8293, "camp`bell</w>": 8294, "inst`alled</w>": 8295, "we`ather": 8296, "hor`ses</w>": 8297, "ol`i</w>": 8298, "rober`t": 8299, "k`az": 8300, "\u00f0\u0141\u0131`\u0122</w>": 8301, "veter`an</w>": 8302, "th`read</w>": 8303, "quar`ter": 8304, "ea`sier</w>": 8305, "cap`ture</w>": 8306, "hi`pho": 8307, "law`rence</w>": 8308, "roman`tic</w>": 8309, "pas`sion": 8310, "cl`ay</w>": 8311, "ox`ford</w>": 8312, "th`ai</w>": 8313, "stu`dying</w>": 8314, "fi`a</w>": 8315, "elec`ted</w>": 8316, "most`ly</w>": 8317, "c`b</w>": 8318, "tu`mb": 8319, "\u00e2\u0122\u012f\u00e2\u013b`\u0124": 8320, "x`l</w>": 8321, "sh`an</w>": 8322, "fa`ster</w>": 8323, "ev`ans</w>": 8324, "sli`de</w>": 8325, "sh`ri": 8326, "see`k</w>": 8327, "mi`es</w>": 8328, "chemi`stry</w>": 8329, "pump`kin</w>": 8330, "tu`m</w>": 8331, ",`,</w>": 8332, "ro`om": 8333, "fi`red</w>": 8334, "li`ps</w>": 8335, "pres`ence</w>": 8336, "af`f": 8337, "brew`ery</w>": 8338, "arri`ve</w>": 8339, "sw`ag": 8340, "photo`graph</w>": 8341, "pen`gu": 8342, "chi`ps</w>": 8343, "at`tor": 8344, "val`ues</w>": 8345, "accur`ate</w>": 8346, "con`temporary</w>": 8347, "princi`pal</w>": 8348, "cannab`is</w>": 8349, "ari`o</w>": 8350, "any`where</w>": 8351, "gi`a</w>": 8352, "democr`ats</w>": 8353, "buil`dings</w>": 8354, "li`ved</w>": 8355, "ap`s</w>": 8356, "neg`ative</w>": 8357, "m`are</w>": 8358, "bal`lo": 8359, "li`on": 8360, "diam`on": 8361, "loo`k": 8362, "re`form</w>": 8363, "tom`my</w>": 8364, "il`la": 8365, "tre`ats</w>": 8366, "hundre`ds</w>": 8367, "port`land</w>": 8368, "wor`thy</w>": 8369, "ex`cep": 8370, "ar`ia</w>": 8371, "ido`l</w>": 8372, "be`er": 8373, "cd`n": 8374, "y`u</w>": 8375, "aw`k": 8376, "\u00f0\u0141\u0129`\u00a8": 8377, "c`ells</w>": 8378, "\u00c3`\u00b3": 8379, "ident`ity</w>": 8380, "dra`wn</w>": 8381, "de`vil": 8382, "f`inger</w>": 8383, "th`am</w>": 8384, "\u00f0\u0141\u0133`\u012c": 8385, "ear`ned</w>": 8386, "fin`tech</w>": 8387, "dol`ph": 8388, "twee`ting</w>": 8389, "evolu`tion</w>": 8390, "\u00f0\u0141\u0135`\u012f</w>": 8391, "est`im": 8392, "m`vp</w>": 8393, "n`one</w>": 8394, "\u00f0\u0141\u0129\u00ba\u00f0\u0141\u0129`\u00b8": 8395, "toyo`ta</w>": 8396, "au`x</w>": 8397, "mar`in": 8398, "b`old</w>": 8399, "l`bs</w>": 8400, "ste`ak</w>": 8401, "mur`phy</w>": 8402, "it`able</w>": 8403, "lou`is": 8404, "sol`ve</w>": 8405, "pi`a</w>": 8406, "sk`ir": 8407, "ill`ino": 8408, "webin`ar</w>": 8409, "ban`ana</w>": 8410, "lo`v": 8411, "th`on</w>": 8412, "vo`ters</w>": 8413, "afford`able</w>": 8414, "defe`ated</w>": 8415, "lm`fa": 8416, "air`lines</w>": 8417, "super`b</w>": 8418, "any`way</w>": 8419, "deb`t</w>": 8420, "bo`red</w>": 8421, "ver`si": 8422, "me`tal": 8423, "responsi`ble</w>": 8424, "m`k</w>": 8425, "s`se</w>": 8426, "f`ay": 8427, "cau`sed</w>": 8428, "f`p</w>": 8429, "recomm`end</w>": 8430, "pla`za</w>": 8431, "spor`ting</w>": 8432, "alli`ance</w>": 8433, "au`stri": 8434, "n`n": 8435, "t`ours</w>": 8436, "surpri`sed</w>": 8437, "arti`f": 8438, "th`under</w>": 8439, "sur`ve": 8440, "wor`e</w>": 8441, "bri`ef</w>": 8442, "necess`ary</w>": 8443, "z`ie</w>": 8444, "ash`ley</w>": 8445, "dra`ke</w>": 8446, "r`t": 8447, "kni`fe</w>": 8448, "im`mun": 8449, "char`ges</w>": 8450, "a`the": 8451, "bri`de</w>": 8452, "rep`ly</w>": 8453, "g`av": 8454, "broad`cast</w>": 8455, "pu`er": 8456, "brace`let</w>": 8457, "cap`acity</w>": 8458, "harve`st</w>": 8459, "id`k</w>": 8460, "perfor`man": 8461, "d`ding</w>": 8462, "il`ers</w>": 8463, "par`a</w>": 8464, "jam`a": 8465, "pro`vince</w>": 8466, "ch`in</w>": 8467, "id`ers</w>": 8468, "har`i</w>": 8469, "te`aser</w>": 8470, "ch`en</w>": 8471, "re`stor": 8472, "r`at</w>": 8473, "fl`at": 8474, "col`om": 8475, "\u00f0\u0141\u0134`\u0140</w>": 8476, "\u00f0\u0141\u0129\u00a8`\u00f0\u0141\u0129": 8477, "smoo`th</w>": 8478, "r`t</w>": 8479, "p`itch": 8480, "stay`ing</w>": 8481, "isra`eli</w>": 8482, "t`cot</w>": 8483, "per`spective</w>": 8484, "do`ck</w>": 8485, "open`er</w>": 8486, "lo`vel": 8487, "x`o</w>": 8488, "class`room</w>": 8489, "l`ington</w>": 8490, "go`al": 8491, "kenne`dy</w>": 8492, "sh`am</w>": 8493, "sp`aces</w>": 8494, "mitch`ell</w>": 8495, "home`coming</w>": 8496, "uk`i</w>": 8497, "claim`ed</w>": 8498, "recru`it": 8499, "ing`o</w>": 8500, "mu`fc</w>": 8501, "mon`it": 8502, "g`roo": 8503, "resi`dent</w>": 8504, "per`cent</w>": 8505, "per`man": 8506, "otta`wa</w>": 8507, "int`ment</w>": 8508, "an`xi": 8509, "stand`ards</w>": 8510, "wor`ship</w>": 8511, "sche`me</w>": 8512, "f`x</w>": 8513, "pot`ter</w>": 8514, "bi`an</w>": 8515, "athle`tic</w>": 8516, "af`gh": 8517, "s`se": 8518, "sat`ell": 8519, "par`ties</w>": 8520, "\u00e2\u013f\u00a4`\u00e2\u013f\u00a4": 8521, "infra`structure</w>": 8522, "rela`x</w>": 8523, "mo`du": 8524, "wor`n</w>": 8525, "smo`king</w>": 8526, "y`ach": 8527, "practic`es</w>": 8528, "wc`w</w>": 8529, "am`b": 8530, "dome`stic</w>": 8531, "tay`lor": 8532, "k`entu": 8533, "provi`ded</w>": 8534, "mo`di": 8535, "ve`g": 8536, "\"`...</w>": 8537, "ob`serv": 8538, "\u00f0\u0141\u013a`\u00a9": 8539, "be`ard</w>": 8540, "m`our": 8541, "an`gry</w>": 8542, "\u00f0\u0141\u013a`\u00b1</w>": 8543, "startu`ps</w>": 8544, "woo`den</w>": 8545, "di`ve</w>": 8546, "na`il</w>": 8547, "anti`que</w>": 8548, "ro`ses</w>": 8549, "torn`ado</w>": 8550, "m`at</w>": 8551, "^`^</w>": 8552, "su`spect</w>": 8553, "far`m": 8554, "de`vices</w>": 8555, "me`ga</w>": 8556, "tu`l": 8557, "scholar`ship</w>": 8558, "ge`e</w>": 8559, "disa`ster</w>": 8560, "arri`val</w>": 8561, "po`in": 8562, "mar`c</w>": 8563, "kati`e</w>": 8564, "bb`ed</w>": 8565, "fal`se</w>": 8566, "deser`ves</w>": 8567, "ric`hard": 8568, "ju`ana</w>": 8569, "fre`y</w>": 8570, "tion`ed</w>": 8571, "hy`bri": 8572, "r`w": 8573, "sar`ah": 8574, "ach`i</w>": 8575, "c`ure</w>": 8576, "o`le": 8577, "mor`ris</w>": 8578, "ch`ic</w>": 8579, "broad`way</w>": 8580, "la`bel</w>": 8581, "pa`k</w>": 8582, "pover`ty</w>": 8583, "gol`f": 8584, "e`red</w>": 8585, "f`u</w>": 8586, "er`ies</w>": 8587, "be`es</w>": 8588, "alo`gue</w>": 8589, "st`el": 8590, "wire`less</w>": 8591, "je`wish</w>": 8592, "ti`de</w>": 8593, "blo`cked</w>": 8594, "life`time</w>": 8595, "b`har": 8596, "sp`lit</w>": 8597, "am`ster": 8598, "th`i</w>": 8599, "jo`shu": 8600, "br`unch</w>": 8601, "ha`ps</w>": 8602, "s`for": 8603, "oo`ps</w>": 8604, "ka`poor</w>": 8605, "hi`king</w>": 8606, "suppo`sed</w>": 8607, "ro`of": 8608, "re`as": 8609, "tra`in": 8610, "ti`ght</w>": 8611, "tru`mp": 8612, "bas`ically</w>": 8613, "r`r</w>": 8614, "ea`red</w>": 8615, "see`ds</w>": 8616, "entr`ance</w>": 8617, "c`p</w>": 8618, "wi`e</w>": 8619, "son`ic</w>": 8620, "vic`tim</w>": 8621, "he`re": 8622, "e`h</w>": 8623, "ear`rings</w>": 8624, "sal`mon</w>": 8625, "arc`tic</w>": 8626, "an`ne": 8627, "dou`gla": 8628, "corru`ption</w>": 8629, "hann`ah</w>": 8630, "ha`sn</w>": 8631, "vo`ices</w>": 8632, "con`ce": 8633, "att`a</w>": 8634, "fle`et</w>": 8635, "clin`ical</w>": 8636, "democr`atic</w>": 8637, "ton`y": 8638, "st`ood</w>": 8639, "le`f": 8640, "twit`ch</w>": 8641, "a`il</w>": 8642, "honest`ly</w>": 8643, "incre`ased</w>": 8644, "dro`me</w>": 8645, "don`na</w>": 8646, "accep`ted</w>": 8647, "visit`ors</w>": 8648, "ap`ar": 8649, "ad`or</w>": 8650, "p`ar</w>": 8651, "jer`ry</w>": 8652, "ra`i": 8653, "brand`on</w>": 8654, "ab`u": 8655, "!!`!!!!</w>": 8656, "me`me</w>": 8657, "in`gh": 8658, "glori`ous</w>": 8659, "b`hu": 8660, "pu`mp</w>": 8661, "j`ol": 8662, "li`ke": 8663, "fi`sher</w>": 8664, "ma`z": 8665, "ag`an</w>": 8666, "destin`ation</w>": 8667, "play`list</w>": 8668, "le`tters</w>": 8669, "gen`u": 8670, "br`ace</w>": 8671, "celebr`ated</w>": 8672, "bann`er</w>": 8673, "r`he": 8674, "dra`gon": 8675, "\u00f0\u0141\u013a`\u0127</w>": 8676, "sig`nature</w>": 8677, "gre`y": 8678, "\u00e2\u013e`\u0136\u00ef\u00b8\u0131</w>": 8679, "al`ice</w>": 8680, "be`red</w>": 8681, "ph`er": 8682, "ber`n": 8683, "ca`th": 8684, "ga`thering</w>": 8685, "sc`oring</w>": 8686, "influ`ence</w>": 8687, "sm`iling</w>": 8688, "de`pt</w>": 8689, "lo`cal": 8690, "a`x</w>": 8691, "ac`u": 8692, "reti`rement</w>": 8693, "hon`or": 8694, "her`self</w>": 8695, "chem`ical</w>": 8696, "asse`ss": 8697, "y`all</w>": 8698, "fre`qu": 8699, "appreci`ation</w>": 8700, "ac`a</w>": 8701, "cho`ir</w>": 8702, "cu`z</w>": 8703, "so`il</w>": 8704, "c`il": 8705, "repor`ting</w>": 8706, "u`h</w>": 8707, "enterpri`se</w>": 8708, "gr`at": 8709, "jaco`b</w>": 8710, "ru`m": 8711, "fe`e</w>": 8712, "j`ak": 8713, "sp`in</w>": 8714, "bi`kes</w>": 8715, "phi`a</w>": 8716, "ste`re": 8717, "p`is": 8718, "bloo`d": 8719, "t`att": 8720, "ra`ft</w>": 8721, "war`ren</w>": 8722, "sh`eri": 8723, "back`stage</w>": 8724, "mar`sh": 8725, "hash`tag</w>": 8726, "ther`ine</w>": 8727, "re`in": 8728, "game`day</w>": 8729, "guar`an": 8730, "reci`pes</w>": 8731, "min`ds</w>": 8732, "stron`ger</w>": 8733, "issu`ed</w>": 8734, "bic`y": 8735, "n`ak": 8736, "ment`ed</w>": 8737, "sc`ary</w>": 8738, "u`x": 8739, "pre`vious</w>": 8740, "tt`le</w>": 8741, "th`ats</w>": 8742, "ac`tors</w>": 8743, "u`ma</w>": 8744, "tin`a</w>": 8745, "bun`ny</w>": 8746, "promo`tion</w>": 8747, "u`ss</w>": 8748, "oli`ver</w>": 8749, "montre`al</w>": 8750, "what`s": 8751, "appreci`ated</w>": 8752, "la`kes</w>": 8753, "excu`se</w>": 8754, "kno`wing</w>": 8755, "pri`zes</w>": 8756, "musc`le</w>": 8757, "shad`es</w>": 8758, "sco`t</w>": 8759, "ing`redi": 8760, "electr`onic</w>": 8761, "ju`an</w>": 8762, "comb`at</w>": 8763, "s`ri</w>": 8764, "e`h": 8765, "turk`ish</w>": 8766, "l`om": 8767, "stri`kes</w>": 8768, "pri`son": 8769, "re`e": 8770, "po`pe</w>": 8771, "vi`d</w>": 8772, "ol`dest</w>": 8773, "dol`l</w>": 8774, "sw`iss</w>": 8775, "certi`fied</w>": 8776, "cli`p</w>": 8777, "re`turning</w>": 8778, "lat`or</w>": 8779, "le`igh</w>": 8780, "tt`es</w>": 8781, "wat`son</w>": 8782, "heal`ing</w>": 8783, "el`im": 8784, "per`haps</w>": 8785, "ha`ss": 8786, "k`au": 8787, "d`der</w>": 8788, "mou`se</w>": 8789, "new`castle</w>": 8790, "indigen`ous</w>": 8791, "wel`comes</w>": 8792, "co`le": 8793, "tau`ght</w>": 8794, "no`ise</w>": 8795, "appe`ar</w>": 8796, "jo`e": 8797, "can`on</w>": 8798, "wedne`sday": 8799, "u`tah</w>": 8800, "c`tive</w>": 8801, "dri`ven</w>": 8802, "i`v</w>": 8803, "c`ell": 8804, "stri`p</w>": 8805, "ac`c</w>": 8806, "focu`sed</w>": 8807, "ar`rest</w>": 8808, "sto`cks</w>": 8809, "wo`o</w>": 8810, "\u00e2`\u0139": 8811, "notic`ed</w>": 8812, "shad`o": 8813, "di`spla": 8814, "ter`ror</w>": 8815, "bor`ne</w>": 8816, "secon`d": 8817, "que`ens</w>": 8818, "wo`ke</w>": 8819, "ja`il</w>": 8820, "no`tt": 8821, "cam`bridge</w>": 8822, "har`t": 8823, "se`af": 8824, "fa`x</w>": 8825, "ac`cept</w>": 8826, "\u00e2\u013a`\u0127": 8827, "goo`ds</w>": 8828, "k`at</w>": 8829, "t`win": 8830, "h`s": 8831, "thou`sand</w>": 8832, "s`ins</w>": 8833, "su`ite</w>": 8834, "amp`ton</w>": 8835, "ar`n": 8836, "rele`v": 8837, "ric`har": 8838, "hoo`ps</w>": 8839, "n`bc": 8840, "class`ic": 8841, "p`ab": 8842, "soldi`er</w>": 8843, "de`plo": 8844, "le`ans</w>": 8845, "install`ation</w>": 8846, "cla`sh</w>": 8847, "le`ban": 8848, "ee`e</w>": 8849, "ti`re</w>": 8850, "belo`ved</w>": 8851, "fu`sion</w>": 8852, "travel`ing</w>": 8853, "ne`i": 8854, "coo`kie</w>": 8855, "glo`be</w>": 8856, "phys`ics</w>": 8857, "s`q": 8858, "co`l</w>": 8859, "wol`ves</w>": 8860, "d`l</w>": 8861, "ex`it</w>": 8862, "\"`-</w>": 8863, "foo`tball": 8864, "le`af": 8865, "ster`ling</w>": 8866, "hi`de</w>": 8867, "minne`so": 8868, "fresh`man</w>": 8869, "natu`re": 8870, "indi`e</w>": 8871, "supp`lies</w>": 8872, "bri`s": 8873, "iri`sh": 8874, "ink`tober</w>": 8875, "doo`dle</w>": 8876, "ic`op": 8877, "mess`ages</w>": 8878, "adul`ts</w>": 8879, "recor`ded</w>": 8880, "fix`ed</w>": 8881, "ar`do</w>": 8882, "offe`red</w>": 8883, "under`ground</w>": 8884, "dr`one</w>": 8885, "p`ine": 8886, "ma`inten": 8887, "and`re</w>": 8888, "ham`mer</w>": 8889, "s`x": 8890, "r`ound": 8891, "hi`ke</w>": 8892, "bra`d</w>": 8893, "ro`me": 8894, "fu`ll": 8895, "on`ey</w>": 8896, "ro`ws</w>": 8897, "colum`bia</w>": 8898, "archi`ves</w>": 8899, "appro`ved</w>": 8900, "bat`ch</w>": 8901, "illino`is</w>": 8902, "recogn`ition</w>": 8903, "shou`ldn</w>": 8904, "fo`g</w>": 8905, "nca`a</w>": 8906, "ke`vin": 8907, "human`ity</w>": 8908, "al`though</w>": 8909, "pow`ers</w>": 8910, "p`ou": 8911, "s`ar</w>": 8912, "pe`st</w>": 8913, "alco`hol</w>": 8914, "con`sci": 8915, "phil`adel": 8916, "en`o": 8917, "t`m": 8918, "ok`la": 8919, "cate`gory</w>": 8920, "particip`ate</w>": 8921, "accu`sed</w>": 8922, "bri`ef": 8923, "po`em</w>": 8924, "clu`bs</w>": 8925, "consul`t": 8926, "ja`b</w>": 8927, "big`data</w>": 8928, "amster`dam</w>": 8929, "ac`ing</w>": 8930, "certi`fic": 8931, "n`u</w>": 8932, "d`at</w>": 8933, "impro`ved</w>": 8934, "and`y": 8935, "campa`ig": 8936, "pale`stin": 8937, "p`ace</w>": 8938, "mo`bi": 8939, "feel`ings</w>": 8940, "wol`f": 8941, "bra`in": 8942, "pro`pos": 8943, "inter`active</w>": 8944, "prin`ce": 8945, "inde`x</w>": 8946, "c`is": 8947, "cha`e": 8948, "peace`ful</w>": 8949, "co`vering</w>": 8950, "ac`o": 8951, "cour`ses</w>": 8952, "mon`key</w>": 8953, "re`place</w>": 8954, "b`l</w>": 8955, "bloo`dy</w>": 8956, "tal`es</w>": 8957, "brigh`ton</w>": 8958, "neighbor`hood</w>": 8959, "g`ates</w>": 8960, "spiritu`al</w>": 8961, "af`raid</w>": 8962, "bre`ast</w>": 8963, "b`ones</w>": 8964, "\u00f0\u0141\u0133`\u012b": 8965, "vide`o": 8966, "w`au": 8967, "tou`ch": 8968, "inju`ries</w>": 8969, "car`l</w>": 8970, "ri`x</w>": 8971, "une`x": 8972, "\u00e2\u0122`\u00a2": 8973, "fre`d": 8974, "consi`dered</w>": 8975, "thu`si": 8976, "an`ch": 8977, "on`y": 8978, "u`sa": 8979, "graph`ics</w>": 8980, "ac`re</w>": 8981, "\u00f0\u0141\u013a`\u00a9</w>": 8982, "com`memor": 8983, "com`mod": 8984, "go`ti": 8985, "guar`dian</w>": 8986, "star`bucks</w>": 8987, "pre`vention</w>": 8988, "haha`haha</w>": 8989, "admini`stration</w>": 8990, "portu`gal</w>": 8991, "fac`ulty</w>": 8992, "bet`a</w>": 8993, "ul`a</w>": 8994, "al`bert</w>": 8995, "bre`ath": 8996, "er`i</w>": 8997, "le`tting</w>": 8998, "tr`ic": 8999, "ment`ation</w>": 9000, "incredi`bly</w>": 9001, "ten`nes": 9002, "v`d</w>": 9003, "\u00f0\u0141\u013b`\u012a</w>": 9004, "ed`die</w>": 9005, "br`ick</w>": 9006, "gr`ill</w>": 9007, "bt`w</w>": 9008, "wat`ches</w>": 9009, "resear`chers</w>": 9010, "t`ney</w>": 9011, "ni`e": 9012, "p`as</w>": 9013, "a`ster</w>": 9014, "vi`br": 9015, "poke`mon</w>": 9016, "ch`rome</w>": 9017, "go`at</w>": 9018, "pitt`s": 9019, "il`ly</w>": 9020, "festi`ve</w>": 9021, "y`d</w>": 9022, "can`al</w>": 9023, "\u00f0\u0141`\u0128": 9024, "fi`es</w>": 9025, "car`los</w>": 9026, "re`que": 9027, "partic`i": 9028, "tra`ins</w>": 9029, "sam`ple</w>": 9030, "temper`ature</w>": 9031, "sym`ph": 9032, "pic`king</w>": 9033, "in`door</w>": 9034, "z`ers</w>": 9035, "playo`ffs</w>": 9036, "____`____": 9037, "ap`es</w>": 9038, "ly`rics</w>": 9039, "islam`ic</w>": 9040, "performan`ces</w>": 9041, "d`ick</w>": 9042, "spar`k": 9043, "se`as</w>": 9044, "hom`a</w>": 9045, "gr`ound": 9046, "disc`i": 9047, "employe`e</w>": 9048, "com`mu": 9049, "alas`ka</w>": 9050, "al`an": 9051, "fe`ast</w>": 9052, "dg`ing</w>": 9053, "ban`king</w>": 9054, "manu`el</w>": 9055, "slow`ly</w>": 9056, "tru`cks</w>": 9057, "mc`car": 9058, "oo`o</w>": 9059, "sc`rat": 9060, "orche`stra</w>": 9061, "indivi`du": 9062, "m`x</w>": 9063, "bre`ath</w>": 9064, "stair`s</w>": 9065, "equ`ality</w>": 9066, "bla`ke</w>": 9067, "loc`ations</w>": 9068, "cocon`ut</w>": 9069, "balti`more</w>": 9070, "aa`a</w>": 9071, "l`c": 9072, "\u00f0\u0141\u0131`\u0128": 9073, "har`vey</w>": 9074, "resi`st</w>": 9075, "immigr`ation</w>": 9076, "adid`as</w>": 9077, "fil`i": 9078, "re`f</w>": 9079, "lg`bt</w>": 9080, "mo`s</w>": 9081, "pp`i</w>": 9082, "ken`ny</w>": 9083, "terr`or": 9084, "ban`e</w>": 9085, "apol`is</w>": 9086, "s`g": 9087, "social`media</w>": 9088, "ka`i</w>": 9089, "hon`est</w>": 9090, "as`sas": 9091, "bol`lywood</w>": 9092, "\u00e2\u0122\u012f\u00e2\u013b`\u0122\u00ef\u00b8\u0131</w>": 9093, "ferr`ari</w>": 9094, "hor`n</w>": 9095, "cryp`to</w>": 9096, "bo`om": 9097, "mainten`ance</w>": 9098, "i`di": 9099, "s`man</w>": 9100, "w`l</w>": 9101, "ext`ended</w>": 9102, "in`sul": 9103, "ve`s": 9104, "go`sp": 9105, "tr`i</w>": 9106, "pi`g</w>": 9107, "tar`ge": 9108, "cel`er": 9109, "st`ati": 9110, "sm`h</w>": 9111, "ri`dic": 9112, "appe`al</w>": 9113, "?`)</w>": 9114, "con`clu": 9115, "cos`me": 9116, "she`ep</w>": 9117, "christop`her</w>": 9118, "en`thusi": 9119, "po`lish</w>": 9120, "me`ts</w>": 9121, "oun`ded</w>": 9122, "sustain`ability</w>": 9123, "creati`vity</w>": 9124, "con`crete</w>": 9125, "ra`i</w>": 9126, "ali`en</w>": 9127, "ble`ss": 9128, "te`es</w>": 9129, "clu`b": 9130, "ro`t</w>": 9131, "bo`s</w>": 9132, "ex`ist</w>": 9133, "perfe`ction</w>": 9134, "lu`ck": 9135, "rock`y</w>": 9136, "expen`sive</w>": 9137, "mean`while</w>": 9138, "happy`birthday": 9139, "pre`t": 9140, "thr`iller</w>": 9141, "ca`ve</w>": 9142, "playo`ff</w>": 9143, "som`er": 9144, "l`u</w>": 9145, "le`x</w>": 9146, "def`ence</w>": 9147, "am`writing</w>": 9148, "home`less</w>": 9149, "pro`phe": 9150, "ch`et</w>": 9151, "past`or</w>": 9152, "\u00f0\u0141\u00a4`\u00a3": 9153, "land`er</w>": 9154, "ww`w</w>": 9155, "\u0122`\u00ef\u00b8\u0131": 9156, "tic`a</w>": 9157, "!`#</w>": 9158, "o`tic</w>": 9159, "rad`ar</w>": 9160, "po`sters</w>": 9161, "pow`der</w>": 9162, "po`li": 9163, "ha`un": 9164, "tra`p</w>": 9165, "bl`in": 9166, "assau`lt</w>": 9167, "shor`ts</w>": 9168, "re`y": 9169, "sh`y</w>": 9170, "squ`ir": 9171, "rac`ist</w>": 9172, "gar`lic</w>": 9173, "fu`r</w>": 9174, "remo`te</w>": 9175, "sm`ell</w>": 9176, "impre`ssed</w>": 9177, "fing`ers</w>": 9178, "\u00e2\u0142`\u0122": 9179, "din`o": 9180, "le`ment</w>": 9181, "s`nu": 9182, "promo`ting</w>": 9183, "str`ing</w>": 9184, "produc`tive</w>": 9185, "b`age</w>": 9186, "ma`son</w>": 9187, "ra`z": 9188, "direc`tly</w>": 9189, "j`k</w>": 9190, "ev`al</w>": 9191, "\u00f0\u0141\u0133`\u012c</w>": 9192, "doc`tors</w>": 9193, "co`w</w>": 9194, "ri`der</w>": 9195, "st`v</w>": 9196, "re`move</w>": 9197, "w`u": 9198, "na`than</w>": 9199, "ro`d": 9200, "n`r</w>": 9201, "=`></w>": 9202, "affe`cted</w>": 9203, "inve`st</w>": 9204, "mp`tion</w>": 9205, "g`inger</w>": 9206, "o`d</w>": 9207, "agricul`ture</w>": 9208, "s`que": 9209, "mu`g</w>": 9210, "coun`ting</w>": 9211, "ke`e": 9212, "mag`nific": 9213, "coo`k": 9214, "ani`stan</w>": 9215, "roo`t</w>": 9216, "plac`ed</w>": 9217, "sym`po": 9218, "gh`ana</w>": 9219, "un`d</w>": 9220, "che`er": 9221, "thro`wing</w>": 9222, "secre`ts</w>": 9223, "f`illing</w>": 9224, "opti`mi": 9225, "butter`fly</w>": 9226, "bu`bb": 9227, "\u00f0\u0141\u013a`\u012b": 9228, "terri`ble</w>": 9229, "d`g</w>": 9230, "sil`k</w>": 9231, "obse`ssed</w>": 9232, "lo`u</w>": 9233, "ai`de</w>": 9234, "sal`ute</w>": 9235, "mon`u": 9236, "philadel`phia</w>": 9237, "scienti`fic</w>": 9238, "i`st": 9239, "u`ae</w>": 9240, "dess`ert</w>": 9241, "bott`les</w>": 9242, "can`yon</w>": 9243, "\u00f0\u0141\u013a`\u012a</w>": 9244, "car`ib": 9245, "o`ther": 9246, "w`ich": 9247, "re`source</w>": 9248, "guil`ty</w>": 9249, "un`d": 9250, "le`on</w>": 9251, "e`ss</w>": 9252, "kan`e</w>": 9253, "el`e</w>": 9254, "tra`iner</w>": 9255, "he`im</w>": 9256, "an`te</w>": 9257, "man`age</w>": 9258, "roo`kie</w>": 9259, "tre`ated</w>": 9260, "po`ses</w>": 9261, "rs`vp</w>": 9262, "cau`ses</w>": 9263, "aw`ak": 9264, "je`well": 9265, "le`tt</w>": 9266, "on`ics</w>": 9267, "tit`les</w>": 9268, "cardi`ff</w>": 9269, "g`aga</w>": 9270, "bu`mp": 9271, "use`ful</w>": 9272, "?`!": 9273, "loo`se</w>": 9274, "bb`ing</w>": 9275, ":`:</w>": 9276, "argent`ina</w>": 9277, "de`bu": 9278, "cy`cl": 9279, "wh`el": 9280, "dis`gu": 9281, "j`el": 9282, "k`ills</w>": 9283, "bio`logy</w>": 9284, "ex`ter": 9285, "tra`sh</w>": 9286, "bo`dies</w>": 9287, "tr`am": 9288, "circu`it</w>": 9289, "expe`ct": 9290, "la`ds</w>": 9291, "w`ells</w>": 9292, "sho`t": 9293, "ge`e": 9294, "naren`dr": 9295, "fa`stest</w>": 9296, "b`ent": 9297, "b`ills</w>": 9298, "mar`shall</w>": 9299, "h`ats</w>": 9300, "intro`duce</w>": 9301, "citi`zen</w>": 9302, "im`possible</w>": 9303, "gi`b": 9304, "az`z": 9305, "net`working</w>": 9306, "r`ant</w>": 9307, "thin`k": 9308, "in`dy": 9309, "st`ops</w>": 9310, "f`theday</w>": 9311, "bri`an": 9312, "*`*": 9313, "amo`di</w>": 9314, "dom`e</w>": 9315, "coura`ge</w>": 9316, "pac`king</w>": 9317, "af`fairs</w>": 9318, "g`n</w>": 9319, "si`zed</w>": 9320, "ent`ary</w>": 9321, "pol`and</w>": 9322, "swit`zer": 9323, "afgh`anistan</w>": 9324, "w`u</w>": 9325, "ten`der</w>": 9326, "subscri`be</w>": 9327, "mo`sco": 9328, "att`end": 9329, "republic`an</w>": 9330, "hon`ey": 9331, "\u00e2\u0122`\u012d</w>": 9332, "si`mul": 9333, "we`ster": 9334, "foo`die</w>": 9335, "or`o": 9336, "midd`le": 9337, "ab`t</w>": 9338, "co`pies</w>": 9339, "ma`je": 9340, "narendr`amodi</w>": 9341, "ty`pical</w>": 9342, "inspir`ational</w>": 9343, "vit`am": 9344, "wis`con": 9345, "cu`bs</w>": 9346, "tiv`ity</w>": 9347, "h`ali": 9348, "e`ars</w>": 9349, "k`ay</w>": 9350, "d`are</w>": 9351, "mari`juana</w>": 9352, "cu`rious</w>": 9353, "an`ia</w>": 9354, "tom`ato</w>": 9355, "re`mind</w>": 9356, "\u00f0\u0141\u0129`\u00b7</w>": 9357, "sc`ared</w>": 9358, "cou`p": 9359, "po`et</w>": 9360, "land`ed</w>": 9361, "ri`d</w>": 9362, "wra`pped</w>": 9363, "mor`ri": 9364, "climb`ing</w>": 9365, "e`ws</w>": 9366, "fe`eding</w>": 9367, "con`tra": 9368, "tho`logy</w>": 9369, "gri`d</w>": 9370, "ti`vely</w>": 9371, "read`er</w>": 9372, "la`ser</w>": 9373, "di`ving</w>": 9374, "di`g</w>": 9375, "lat`in</w>": 9376, "ti`ed</w>": 9377, "shake`spe": 9378, "o`ci": 9379, "ad`m": 9380, "show`ers</w>": 9381, "chu`ck</w>": 9382, "mar`cus</w>": 9383, "oo`s</w>": 9384, "kne`e</w>": 9385, "o`live</w>": 9386, "ow`l</w>": 9387, "dy`lan</w>": 9388, "an`no": 9389, "g`ym": 9390, "deci`sions</w>": 9391, "well`ness</w>": 9392, "arri`ves</w>": 9393, "sati`s": 9394, "chri`s": 9395, "thur`s</w>": 9396, "\u00f0\u0141\u00a4`\u00a3</w>": 9397, "inter`views</w>": 9398, "thank`you</w>": 9399, "switzer`land</w>": 9400, "over`night</w>": 9401, "journ`alist</w>": 9402, "ser`ves</w>": 9403, "vol`can": 9404, "....`...</w>": 9405, "plo`t</w>": 9406, "nic`ol": 9407, "car`rying</w>": 9408, "mag`ne": 9409, "tre`asure</w>": 9410, "ex`p": 9411, "be`ver": 9412, "\u00f0\u0141\u013a`\u00a2</w>": 9413, "mar`ty": 9414, "mo`le": 9415, "don`ations</w>": 9416, "recogni`zed</w>": 9417, "b`h": 9418, "du`s</w>": 9419, "sh`ann": 9420, "al`do</w>": 9421, "success`fully</w>": 9422, "ent`e</w>": 9423, "\u00f0\u0141\u013a\u0124\u00f0\u0141\u013a\u0124`\u00f0\u0141\u013a\u0124\u00f0\u0141\u013a\u0124": 9424, "cab`inet</w>": 9425, "cu`is": 9426, "tit`led</w>": 9427, "d`as": 9428, "so`l</w>": 9429, "strate`gies</w>": 9430, "deli`vering</w>": 9431, "ad`ds</w>": 9432, "ani`an</w>": 9433, "ne`ther": 9434, "\u00f0\u0141\u0134`\u0125": 9435, "con`tain": 9436, "su`its</w>": 9437, "pa`irs</w>": 9438, "to`dd</w>": 9439, "rel`la</w>": 9440, "ro`pe</w>": 9441, "ci`o</w>": 9442, "cro`p</w>": 9443, "paint`ings</w>": 9444, "su`z": 9445, "re`jec": 9446, "bu`st</w>": 9447, "d`h</w>": 9448, "fra`ud</w>": 9449, "m`h": 9450, "contro`l": 9451, "je`al": 9452, "destroy`ed</w>": 9453, "al`lows</w>": 9454, "wo`ol": 9455, "minneso`ta</w>": 9456, "om`en": 9457, "j`u</w>": 9458, "sympo`sium</w>": 9459, "d`af": 9460, "lim`it</w>": 9461, "accoun`ts</w>": 9462, "load`ing</w>": 9463, "inter`n": 9464, "re`solution</w>": 9465, "hol`land</w>": 9466, "qu`al": 9467, "meet`ings</w>": 9468, "gra`ve</w>": 9469, "cam`ping</w>": 9470, "v`am": 9471, "re`nov": 9472, "liber`al</w>": 9473, "am`ber</w>": 9474, "gre`e": 9475, "hu`mb": 9476, "fe`ver</w>": 9477, "el`ing</w>": 9478, "broo`ks</w>": 9479, "\u00e0`\u00b2": 9480, "be`th": 9481, "ad`ed</w>": 9482, "al`t": 9483, "ro`e</w>": 9484, "perform`ed</w>": 9485, "jo`sh": 9486, "frank`lin</w>": 9487, "nic`ole</w>": 9488, "de`ss</w>": 9489, "bb`s</w>": 9490, "m`g": 9491, "net`works</w>": 9492, "min`im": 9493, "al`t</w>": 9494, "weap`ons</w>": 9495, "gu`y": 9496, "jas`on": 9497, "g`ha": 9498, "harb`our</w>": 9499, "at`on</w>": 9500, "pra`ise</w>": 9501, "kentu`cky</w>": 9502, "bel`fast</w>": 9503, "st`icks</w>": 9504, "blo`ss": 9505, "ho`pes</w>": 9506, "an`thro": 9507, "famili`ar</w>": 9508, "wa`it": 9509, "ch`ile</w>": 9510, "depre`ssion</w>": 9511, "la`x</w>": 9512, "je`ts</w>": 9513, "le`ice": 9514, "recei`ves</w>": 9515, "si`er": 9516, "an`k</w>": 9517, "de`x": 9518, "inde`ed</w>": 9519, "fle`xi": 9520, "fab`ric</w>": 9521, "lam`b</w>": 9522, "hel`icop": 9523, "am`anda</w>": 9524, "\u00e2\u0122\u0136`\u00e2\u0122\u0136": 9525, "compe`te</w>": 9526, "sn`ack</w>": 9527, "techno`logies</w>": 9528, "sy`rian</w>": 9529, "mom`s</w>": 9530, "mu`ham": 9531, "cho`sen</w>": 9532, "an`at": 9533, "dev`on</w>": 9534, "shar`ks</w>": 9535, "re`t</w>": 9536, "fundra`iser</w>": 9537, "selfi`es</w>": 9538, "st`ations</w>": 9539, "communic`ations</w>": 9540, "tennes`see</w>": 9541, "tu`tor": 9542, "ro`t": 9543, "valu`able</w>": 9544, "dynam`ic</w>": 9545, "nur`se</w>": 9546, "i`ed</w>": 9547, "earth`quake</w>": 9548, "deser`ved</w>": 9549, "a`ve": 9550, "sar`a</w>": 9551, "stre`tch</w>": 9552, "dougla`s</w>": 9553, "ne`pal</w>": 9554, "\u00c3`\u00a7": 9555, "ob`viously</w>": 9556, "d`ame</w>": 9557, "ra`pe</w>": 9558, "any`body</w>": 9559, "k`w": 9560, "pat`rol</w>": 9561, "hol`ders</w>": 9562, "h`anna</w>": 9563, "info`graphic</w>": 9564, "ec`o</w>": 9565, "be`ating</w>": 9566, "stan`ley</w>": 9567, "bo`ats</w>": 9568, "ri`bb": 9569, "e`z": 9570, "wit`ch</w>": 9571, "inv`a": 9572, "ac`id</w>": 9573, "boar`ding</w>": 9574, "-`@</w>": 9575, "gi`l</w>": 9576, "da`ve": 9577, "care`ers</w>": 9578, "opp`os": 9579, "l`loy": 9580, "in`ter</w>": 9581, "do`pe</w>": 9582, "re`su": 9583, "j`agu": 9584, "sh`ade</w>": 9585, "in`dy</w>": 9586, "on`ist</w>": 9587, "rel`ations</w>": 9588, "ag`en": 9589, "ab`le": 9590, "inci`dent</w>": 9591, "me`ter</w>": 9592, "shar`ma</w>": 9593, "id`r</w>": 9594, "pro`ve</w>": 9595, "immedi`ately</w>": 9596, "tro`ops</w>": 9597, "am`an</w>": 9598, "g`low</w>": 9599, "gaz`a</w>": 9600, "blo`cks</w>": 9601, "person`al": 9602, "chron`ic": 9603, "all`er": 9604, "si`d": 9605, "sh`r": 9606, "whats`app</w>": 9607, "lu`cy</w>": 9608, "ar`chae": 9609, "ho`u</w>": 9610, "journ`alism</w>": 9611, "our`selves</w>": 9612, "go`t": 9613, "the`med</w>": 9614, "shap`ed</w>": 9615, "we`ak</w>": 9616, "cas`ual</w>": 9617, "leng`th</w>": 9618, "sla`m</w>": 9619, "ab`bey</w>": 9620, "e`v</w>": 9621, "coun`ter": 9622, "est`a</w>": 9623, "reci`pi": 9624, "cha`pel</w>": 9625, "expan`sion</w>": 9626, "sel`f": 9627, "suff`ering</w>": 9628, "sp`ice</w>": 9629, "n`z": 9630, "sp`art": 9631, "desp`er": 9632, "boo`king</w>": 9633, "quart`ers</w>": 9634, "y`on": 9635, "\u00f0\u0141\u0134`\u0139": 9636, "p`k": 9637, "continu`ed</w>": 9638, "-`#</w>": 9639, "man`hatt": 9640, "tal`ked</w>": 9641, "sh`en": 9642, "com`bo</w>": 9643, "hybri`d</w>": 9644, "je`ans</w>": 9645, "liqu`id</w>": 9646, "se`al</w>": 9647, "re`tweets</w>": 9648, "ac`celer": 9649, "collec`tive</w>": 9650, "t`as</w>": 9651, ":`))</w>": 9652, "profession`als</w>": 9653, "ra`w": 9654, "o`tt": 9655, "su`san</w>": 9656, "ir`ing</w>": 9657, "okla`homa</w>": 9658, "re`ven": 9659, "survi`val</w>": 9660, "cre`ator</w>": 9661, "tran`sit</w>": 9662, "st`ac": 9663, "sur`f": 9664, "i`k</w>": 9665, "ed`iting</w>": 9666, "ch`illing</w>": 9667, "bai`ley</w>": 9668, "ste`al</w>": 9669, "ra`ble</w>": 9670, "pa`rent</w>": 9671, "hun`ger</w>": 9672, "sn`app": 9673, "collec`t</w>": 9674, "philos`oph": 9675, "dedic`ation</w>": 9676, "c`f": 9677, "c`m": 9678, "le`ep</w>": 9679, "repe`at</w>": 9680, "re`ha": 9681, "un`fortun": 9682, "a`er": 9683, "a`ero": 9684, "abstr`act</w>": 9685, "mon`itor</w>": 9686, "ag`ents</w>": 9687, "bu`l</w>": 9688, "sci`ence": 9689, "harb`or</w>": 9690, "drag`ons</w>": 9691, "floo`ding</w>": 9692, "ac`compli": 9693, "d`ash</w>": 9694, "juli`a</w>": 9695, "the`red</w>": 9696, "tues`day": 9697, "cy`ber</w>": 9698, "b`low</w>": 9699, "ta`ined</w>": 9700, "le`m": 9701, "refe`rence</w>": 9702, "pp`o</w>": 9703, "ne`goti": 9704, "char`le": 9705, "con`nor</w>": 9706, "au`lt</w>": 9707, "access`ories</w>": 9708, "commissi`oner</w>": 9709, "rain`y</w>": 9710, "re`ar</w>": 9711, "advis`ory</w>": 9712, "luc`as</w>": 9713, "ma`id</w>": 9714, "co`al": 9715, "k`av": 9716, "pol`o</w>": 9717, "\u00f0\u0141\u0131`\u00be": 9718, "tran`sport": 9719, "mar`gare": 9720, "straw`berry</w>": 9721, "bur`ns</w>": 9722, "gre`ens</w>": 9723, "ne`v": 9724, "partici`pants</w>": 9725, "col`in</w>": 9726, "belgi`um</w>": 9727, "col`our": 9728, "in`form": 9729, "d`ell</w>": 9730, "br`on</w>": 9731, "cal`y": 9732, "kick`off</w>": 9733, "strate`gic</w>": 9734, "re`union</w>": 9735, "hon`ors</w>": 9736, "li`b": 9737, "egy`p": 9738, "\u00e2\u0143\u0132`\u00ef\u00b8\u0131</w>": 9739, "hy`po": 9740, "si`zes</w>": 9741, "regi`stered</w>": 9742, "bet`es</w>": 9743, "relax`ing</w>": 9744, "bloo`m</w>": 9745, "inten`se</w>": 9746, "valent`ines</w>": 9747, "insan`e</w>": 9748, "w`wii</w>": 9749, "p`x</w>": 9750, "tri`o</w>": 9751, "bla`de</w>": 9752, "wiscon`sin</w>": 9753, "con`e</w>": 9754, "plat`in": 9755, "ali`ze</w>": 9756, "ra`ven": 9757, "incre`asing</w>": 9758, "indi`ans</w>": 9759, "il`ian</w>": 9760, "bl`u</w>": 9761, "rabb`it</w>": 9762, "exten`sion</w>": 9763, "je`f": 9764, "au`di</w>": 9765, "fer`ry</w>": 9766, "s`ell": 9767, "a`day</w>": 9768, "us`b</w>": 9769, "swe`at": 9770, "cham`pag": 9771, "metho`d</w>": 9772, "mem`ph": 9773, "assi`st</w>": 9774, "s`by</w>": 9775, "ca`pe": 9776, "remo`ved</w>": 9777, "mag`n": 9778, "v`t</w>": 9779, "r`ams</w>": 9780, "f`bi</w>": 9781, "tack`le</w>": 9782, "phe`w</w>": 9783, "h`on</w>": 9784, "motor`cycle</w>": 9785, "su`spec": 9786, "eleph`ant</w>": 9787, "sub`ject</w>": 9788, "let`te</w>": 9789, "da`iry</w>": 9790, "whe`at</w>": 9791, "awk`ward</w>": 9792, "ac`t": 9793, "tro`l": 9794, "mit`ted</w>": 9795, "zay`n</w>": 9796, "sheri`ff</w>": 9797, "ene`my</w>": 9798, "con`s</w>": 9799, "ke`tt</w>": 9800, "bul`ls</w>": 9801, "ev`alu": 9802, "bt`c</w>": 9803, "satell`ite</w>": 9804, "ho`lo": 9805, "por`ter</w>": 9806, "dia`betes</w>": 9807, "bet`ter": 9808, "rele`asing</w>": 9809, "sur`f</w>": 9810, ":`-</w>": 9811, "se`basti": 9812, "collec`ting</w>": 9813, "en`cing</w>": 9814, "e`thi": 9815, "go`ds</w>": 9816, "al`ley</w>": 9817, "health`y": 9818, "m`ills</w>": 9819, "sma`sh</w>": 9820, "co`pper</w>": 9821, "cr`ack</w>": 9822, "read`ers</w>": 9823, "sp`ac": 9824, "licen`se</w>": 9825, "bas`ket</w>": 9826, "bang`la": 9827, "en`tic</w>": 9828, "om`i</w>": 9829, "m`ere</w>": 9830, "si`vely</w>": 9831, "anim`ation</w>": 9832, "lan`es</w>": 9833, "dent`ally</w>": 9834, "chill`in</w>": 9835, "fi`e</w>": 9836, "k`aren</w>": 9837, "dep`th</w>": 9838, "li`pse</w>": 9839, "n`g": 9840, "ri`p": 9841, "mel`o": 9842, "sand`y</w>": 9843, "\u00f0\u0141\u0133\u0131`\u00f0\u0141\u0133\u0131": 9844, "vin`cent</w>": 9845, "nu`t": 9846, "hu`g</w>": 9847, "who`le": 9848, "cre`ates</w>": 9849, "?`???</w>": 9850, "\u00e2\u013f\u00a4\u00ef\u00b8\u0131`\u00e2\u013f\u00a4\u00ef\u00b8\u0131</w>": 9851, "bak`ed</w>": 9852, "up`grade</w>": 9853, "rober`ts</w>": 9854, "har`a</w>": 9855, "carib`bean</w>": 9856, "auth`entic</w>": 9857, "mb`s</w>": 9858, "mosco`w</w>": 9859, "attor`ney</w>": 9860, "wi`ki": 9861, "ch`lo": 9862, "hu`ll</w>": 9863, "cor`k</w>": 9864, "\"`!</w>": 9865, "sty`lish</w>": 9866, "\u00f0\u0141\u0135\u00b8`:</w>": 9867, "di`ary</w>": 9868, "impro`ving</w>": 9869, "ex`pand": 9870, "bri`ght": 9871, "pollu`tion</w>": 9872, "k`nights</w>": 9873, "person`ality</w>": 9874, "chec`ked</w>": 9875, "fac`ilities</w>": 9876, "z`el": 9877, "bow`ling</w>": 9878, "gu`er": 9879, "\u00f0\u0141\u0130`\u0124</w>": 9880, "on`going</w>": 9881, "un`its</w>": 9882, "hoo`k</w>": 9883, "be`ck</w>": 9884, "confl`ict</w>": 9885, "to`dd": 9886, "far`ming</w>": 9887, "educ`ational</w>": 9888, "k`ak": 9889, "cla`y": 9890, "stro`ke</w>": 9891, "bel`ly</w>": 9892, "explo`re": 9893, "mill`enni": 9894, "th`m</w>": 9895, "loo`p</w>": 9896, "sm`s</w>": 9897, "consi`st": 9898, "cir`ca</w>": 9899, "br`yan</w>": 9900, "d`ab": 9901, "youn`ger</w>": 9902, "soli`dar": 9903, "pp`a</w>": 9904, "experi`enced</w>": 9905, "b`ella</w>": 9906, "bo`ard": 9907, "shef`field</w>": 9908, "steph`en": 9909, "consu`mer</w>": 9910, "sub`mit</w>": 9911, "spon`sor": 9912, "t`ang": 9913, "ag`gre": 9914, "comb`ined</w>": 9915, "trac`king</w>": 9916, "sand`ers</w>": 9917, "b`az": 9918, "survi`ve</w>": 9919, "fer`red</w>": 9920, "equ`al</w>": 9921, "se`p</w>": 9922, "re`ed</w>": 9923, "str`ong": 9924, "priv`acy</w>": 9925, "st`ap": 9926, "un`g": 9927, "ac`ry": 9928, "pa`sta</w>": 9929, "pir`ates</w>": 9930, "ag`er</w>": 9931, "fair`y</w>": 9932, "du`p</w>": 9933, "introduc`ed</w>": 9934, "wi`p</w>": 9935, "let`s": 9936, "spr`ay</w>": 9937, "\u00f0\u0141\u0135`\u00ba</w>": 9938, "gre`w</w>": 9939, "a`sts</w>": 9940, "pitts`burgh</w>": 9941, "new`york</w>": 9942, "jo`ey</w>": 9943, "lau`ren": 9944, "tra`de": 9945, "ch`op": 9946, "pi`pe</w>": 9947, "cla`ire</w>": 9948, "behavi`or</w>": 9949, "v`ap": 9950, "cre`ws</w>": 9951, "lap`top</w>": 9952, "\u00f0\u0141\u00a4`\u0139</w>": 9953, "che`ster": 9954, "disci`pl": 9955, "d`f</w>": 9956, "out`doors</w>": 9957, "k`s": 9958, "go`ver": 9959, "super`star</w>": 9960, "cas`ino</w>": 9961, "far`mer</w>": 9962, ";`-)</w>": 9963, "re`turned</w>": 9964, "\u00f0\u0141\u0131`\u012a</w>": 9965, "ma`il": 9966, "roa`sted</w>": 9967, "co`sta</w>": 9968, "v`ill": 9969, "pe`z</w>": 9970, "gard`ening</w>": 9971, "distribu`tion</w>": 9972, "sh`ining</w>": 9973, "inve`stors</w>": 9974, "ra`sp": 9975, "dec`ades</w>": 9976, "reali`zed</w>": 9977, "bar`n": 9978, "p`ti</w>": 9979, "st`able</w>": 9980, "ut`d</w>": 9981, "pan`thers</w>": 9982, "m`ens</w>": 9983, "b`n": 9984, "ca`de": 9985, "bu`cket</w>": 9986, "yn`n</w>": 9987, "when`ever</w>": 9988, "wa`ke": 9989, "da`is": 9990, "ber`nie</w>": 9991, "lo`dge</w>": 9992, "ju`lie</w>": 9993, "atmo`sphere</w>": 9994, "\u00f0\u0141\u013a\u013a`\u00f0\u0141\u013a\u013a</w>": 9995, "major`ity</w>": 9996, "par`ti": 9997, "exc`it": 9998, "cu`t": 9999, "me`h": 10000, "musli`ms</w>": 10001, "be`gun</w>": 10002, "fli`ghts</w>": 10003, "vene`ss</w>": 10004, "ce`me": 10005, "po`sing</w>": 10006, "so`le": 10007, "g`ou": 10008, "dark`ness</w>": 10009, "pe`ach": 10010, "cel`tic</w>": 10011, "auth`ority</w>": 10012, "grand`ma</w>": 10013, "ful`ness</w>": 10014, "smi`th": 10015, "speci`fic</w>": 10016, "gar`cia</w>": 10017, "co`ins</w>": 10018, "good`ness</w>": 10019, "aldu`b": 10020, "recru`iting</w>": 10021, "den`nis</w>": 10022, "gar`y": 10023, "sle`eve</w>": 10024, "weap`on</w>": 10025, "pl`z</w>": 10026, "disco`ver": 10027, "harri`son</w>": 10028, "recruit`ment</w>": 10029, "ja`i": 10030, "ch`im": 10031, "com`pared</w>": 10032, "tom`s</w>": 10033, "mo`thers</w>": 10034, "am`y": 10035, "archi`ve</w>": 10036, "t`ask</w>": 10037, "ben`jam": 10038, "se`g": 10039, "law`yer</w>": 10040, "al`um</w>": 10041, "inve`sting</w>": 10042, "mi`e</w>": 10043, "che`z</w>": 10044, "j`p</w>": 10045, "a`ke": 10046, "fl`am": 10047, "wall`paper</w>": 10048, "\u00e2\u013b\u00a5`\u00ef\u00b8\u0131</w>": 10049, "t`ton</w>": 10050, "che`st</w>": 10051, "favor`ites</w>": 10052, "we`igh": 10053, "coo`lest</w>": 10054, "r`ating</w>": 10055, "relev`ant</w>": 10056, "lo`gan</w>": 10057, "ma`ple</w>": 10058, "run`ners</w>": 10059, "pri`or</w>": 10060, "peop`le": 10061, "ma`ur": 10062, "terrori`st</w>": 10063, "te`sted</w>": 10064, "carni`val</w>": 10065, "su`spen": 10066, "me`asure</w>": 10067, "m`v": 10068, "cyber`security</w>": 10069, "app`ren": 10070, "terror`ism</w>": 10071, "o`z": 10072, "v`ital</w>": 10073, "ni`es</w>": 10074, "gon`z": 10075, "fun`ded</w>": 10076, "twi`st</w>": 10077, "assess`ment</w>": 10078, "die`sel</w>": 10079, "en`for": 10080, "colum`n</w>": 10081, "ad`dressing</w>": 10082, "ca`sts</w>": 10083, "pay`ment</w>": 10084, "x`ton</w>": 10085, "fi`er</w>": 10086, ",`'</w>": 10087, "la`st": 10088, "ne`e</w>": 10089, "un`less</w>": 10090, "clo`se": 10091, "sk`ill</w>": 10092, "cuis`ine</w>": 10093, "fun`eral</w>": 10094, "ti`les</w>": 10095, "a`un": 10096, "k`ru": 10097, "relation`ships</w>": 10098, "\u00f0\u0141\u0134`\u00af": 10099, "ev`ent": 10100, "\u00e2\u0122\u012f\u00e2\u013b\u0124`\u00ef\u00b8\u0131</w>": 10101, "kind`ness</w>": 10102, "pro`posed</w>": 10103, "acou`stic</w>": 10104, "a`es": 10105, "defen`der</w>": 10106, "dan`ce": 10107, "h`tt": 10108, "w`at</w>": 10109, "vo`y": 10110, "\u00f0\u0141\u00a4`\u013a": 10111, "au`s": 10112, "cli`ff</w>": 10113, "sear`ching</w>": 10114, "beauti`fully</w>": 10115, "in`qu": 10116, "at`l</w>": 10117, "speci`alist</w>": 10118, "\u00f0\u0141\u0132`\u00b6</w>": 10119, "da`i</w>": 10120, "tra`ils</w>": 10121, "class`ics</w>": 10122, "inst`ant</w>": 10123, "v`ous</w>": 10124, "re`venue</w>": 10125, "mar`ch": 10126, "kir`k": 10127, "fr`inge</w>": 10128, "fire`works</w>": 10129, "tri`via</w>": 10130, "\u00e2\u013a`\u0127</w>": 10131, "tr`action</w>": 10132, "wal`ter</w>": 10133, "mo`to": 10134, "l`ily</w>": 10135, "att`itude</w>": 10136, "cli`mb</w>": 10137, "sc`an": 10138, "sav`ings</w>": 10139, "c`w": 10140, "fa`ith": 10141, "cred`its</w>": 10142, "ab`led</w>": 10143, "gra`ff": 10144, "auto`graph": 10145, "he`he</w>": 10146, "ran`ch</w>": 10147, "ha`d": 10148, "ro`gers</w>": 10149, "\u00f0\u0141\u012e`\u00b9</w>": 10150, "f`in</w>": 10151, "re`qu": 10152, "fol`k": 10153, "ad`ditional</w>": 10154, "lyn`n</w>": 10155, "u`ber</w>": 10156, "dol`lars</w>": 10157, "lo`gic</w>": 10158, "wor`th": 10159, "so`m</w>": 10160, "the`sis</w>": 10161, "p`ound</w>": 10162, "bi`c</w>": 10163, "st`ur": 10164, "cer`am": 10165, "spen`cer</w>": 10166, "en`tered</w>": 10167, "v`amp": 10168, "organi`zed</w>": 10169, "\u00e2\u013e`\u012a": 10170, "pp`s</w>": 10171, "tr`on</w>": 10172, "merce`des</w>": 10173, "no`ti": 10174, "compet`itive</w>": 10175, "do`w</w>": 10176, "ous`ness</w>": 10177, "vic`tor</w>": 10178, "gr`illed</w>": 10179, "na`i</w>": 10180, "pu`tin</w>": 10181, "ab`ra": 10182, "bl`ame</w>": 10183, "alex`and": 10184, "anim`al": 10185, "dec`ent</w>": 10186, "p`ent": 10187, "inter`ior": 10188, ":'`)</w>": 10189, "but`ler</w>": 10190, "bal`let</w>": 10191, "\u00f0\u0141\u0134`\u0136</w>": 10192, "albu`ms</w>": 10193, "down`s</w>": 10194, "la`d</w>": 10195, "si`r": 10196, "pla`in</w>": 10197, "p`ers</w>": 10198, "blon`de</w>": 10199, "dis`c</w>": 10200, "paki`stan": 10201, "se`ment</w>": 10202, "ga`a</w>": 10203, "w`age</w>": 10204, "ch`as": 10205, "man`i</w>": 10206, "co`ps</w>": 10207, "terr`it": 10208, "lo`l": 10209, "lau`ghter</w>": 10210, "ri`vers</w>": 10211, "magnific`ent</w>": 10212, "lam`p</w>": 10213, "w`b": 10214, "new`sle": 10215, "char`ts</w>": 10216, "ble`ssing</w>": 10217, "p`unch</w>": 10218, "lon`gest</w>": 10219, "fl`oral</w>": 10220, "cu`tie</w>": 10221, "fare`well</w>": 10222, "sto`pping</w>": 10223, "mb`b</w>": 10224, "bu`d</w>": 10225, "chee`se": 10226, "de`cla": 10227, "si`m</w>": 10228, "mc`donald</w>": 10229, "de`ter": 10230, "you`th": 10231, "t`ch": 10232, "fre`der": 10233, "kin`dle</w>": 10234, "fer`n": 10235, "at`or": 10236, "as`leep</w>": 10237, "p`ond</w>": 10238, "spr`int</w>": 10239, "p`ounds</w>": 10240, "la`zy</w>": 10241, "gh`e": 10242, "fundra`ising</w>": 10243, "dead`ly</w>": 10244, "gran`de</w>": 10245, "dou`g</w>": 10246, "he`y": 10247, "lin`da</w>": 10248, "consi`dering</w>": 10249, "i`um</w>": 10250, "gol`den": 10251, "vi`k": 10252, "auth`ors</w>": 10253, "di`ss": 10254, "u`ally</w>": 10255, "appropri`ate</w>": 10256, "mor`ning": 10257, "y`le</w>": 10258, "hon`oring</w>": 10259, "foli`o</w>": 10260, "be`c</w>": 10261, "re`bec": 10262, "fin`land</w>": 10263, "formu`la</w>": 10264, "corn`wall</w>": 10265, "sh`ay": 10266, "cau`sing</w>": 10267, "bl`end</w>": 10268, "sig`nal</w>": 10269, "t`ent</w>": 10270, "kash`mir</w>": 10271, "nation`als</w>": 10272, "har`mony</w>": 10273, "sc`out</w>": 10274, "acce`ssi": 10275, "he`ight</w>": 10276, "medi`eval</w>": 10277, "impro`vement</w>": 10278, "ke`es</w>": 10279, "prac`tical</w>": 10280, "car`d": 10281, "de`par": 10282, "hu`n</w>": 10283, "om`ing</w>": 10284, "cal`gary</w>": 10285, "ste`l</w>": 10286, "bu`bble</w>": 10287, "gur`u</w>": 10288, "ma`h</w>": 10289, "unex`pe": 10290, "n`h</w>": 10291, "ed`a</w>": 10292, "me`at": 10293, "i`ge</w>": 10294, "si`o</w>": 10295, "god`dess</w>": 10296, "in`ches</w>": 10297, "tun`es</w>": 10298, "br`itt": 10299, "sti`on</w>": 10300, "ra`j</w>": 10301, "\u00e2\u013b`\u00ab</w>": 10302, "mer`cy</w>": 10303, "\u00f0\u0141\u0134`\u013a</w>": 10304, "sen`ds</w>": 10305, "i`est</w>": 10306, "pol`ici": 10307, "val`e</w>": 10308, "reduc`ed</w>": 10309, "as`ap</w>": 10310, "vi`jay</w>": 10311, "defen`sive</w>": 10312, "celebr`ations</w>": 10313, "ri`ders</w>": 10314, "med`itation</w>": 10315, "har`mon": 10316, "g`ing": 10317, "\u00c2`\u00a1</w>": 10318, "program`ming</w>": 10319, "in`au": 10320, "sud`den": 10321, "m`h</w>": 10322, "replac`ement</w>": 10323, "sk`u": 10324, "j`ar</w>": 10325, "gra`des</w>": 10326, "ta`st": 10327, "k`itt": 10328, "brand`ing</w>": 10329, "k`aw": 10330, "boo`t": 10331, "f`ought</w>": 10332, "p`ays</w>": 10333, "g`f</w>": 10334, "iz`ation</w>": 10335, "ho`p": 10336, "k`k</w>": 10337, "activi`st</w>": 10338, "v`end": 10339, "coast`al</w>": 10340, "cha`os</w>": 10341, "\u00f0\u0141\u0136`\u00b4</w>": 10342, "se`me": 10343, "bill`board</w>": 10344, "li`fting</w>": 10345, "cu`mb": 10346, "sc`al": 10347, "\u00f0\u0141\u0138`\u00a4</w>": 10348, "stru`ck</w>": 10349, "l`v": 10350, "indie`dev</w>": 10351, "beat`en</w>": 10352, "jun`gle</w>": 10353, "al`right</w>": 10354, "destin`y</w>": 10355, "m`ing": 10356, "k`c": 10357, "ch`ances</w>": 10358, "om`an</w>": 10359, "q`atar</w>": 10360, "cra`f": 10361, "tra`ined</w>": 10362, "pri`x</w>": 10363, "char`m</w>": 10364, "o`tive</w>": 10365, "s`mu": 10366, "e`c</w>": 10367, "and`ers</w>": 10368, "hand`ed</w>": 10369, "al`ban": 10370, "certain`ly</w>": 10371, "arri`ving</w>": 10372, "i`ze</w>": 10373, "sa`i</w>": 10374, "tr`ack": 10375, "pain`ter</w>": 10376, "hu`mble</w>": 10377, "appo`intment</w>": 10378, "head`line</w>": 10379, "manag`ing</w>": 10380, "mo`d</w>": 10381, "as`pe": 10382, "andre`a</w>": 10383, "\u00c3`\u00a4": 10384, "ethi`op": 10385, "un`ited": 10386, "exi`st": 10387, "bal`i</w>": 10388, "k`ad": 10389, "n`t": 10390, "d`red</w>": 10391, "re`x</w>": 10392, "recogni`ze</w>": 10393, "tam`pa</w>": 10394, "be`ers</w>": 10395, "ati`a</w>": 10396, "he`els</w>": 10397, "no`te": 10398, "transport`ation</w>": 10399, "tur`tle</w>": 10400, "re`de": 10401, "hipho`p</w>": 10402, "sp`icy</w>": 10403, "sp`urs</w>": 10404, "\u00e2\u00ac`\u0129": 10405, "cor`p</w>": 10406, "ther`n": 10407, "to`ast</w>": 10408, "hur`ry</w>": 10409, "proper`ties</w>": 10410, "ma`ge</w>": 10411, "mar`co</w>": 10412, "ele`ments</w>": 10413, "bou`ti": 10414, "syn`drome</w>": 10415, "ms`g</w>": 10416, "develop`er</w>": 10417, "gra`ders</w>": 10418, "he`im": 10419, "re`sil": 10420, "off`ices</w>": 10421, "del`ay</w>": 10422, "di`men": 10423, "vin`tag": 10424, "barbar`a</w>": 10425, "\u00f0\u0141\u013a`\u00b1": 10426, "vene`zu": 10427, "cu`lar</w>": 10428, "fac`ed</w>": 10429, "bar`n</w>": 10430, "\u00f0\u0141\u013a`\u0128</w>": 10431, "survi`vor</w>": 10432, "wor`m</w>": 10433, "confu`sed</w>": 10434, "passion`ate</w>": 10435, "\u00d8`\u00b1": 10436, "identi`fy</w>": 10437, "electr`icity</w>": 10438, "sou`ls</w>": 10439, "brad`ley</w>": 10440, "repor`tedly</w>": 10441, "lun`ch": 10442, "shel`f</w>": 10443, "eli`a</w>": 10444, "swee`t": 10445, "smoo`th": 10446, "emplo`yment</w>": 10447, "am`el</w>": 10448, "manhatt`an</w>": 10449, "ste`am": 10450, "oun`ts</w>": 10451, "ye`p</w>": 10452, "li`ving": 10453, "un`e</w>": 10454, "descri`be</w>": 10455, "ca`res</w>": 10456, "man`ila</w>": 10457, "sha`wn</w>": 10458, "ac`ted</w>": 10459, "bas`h</w>": 10460, "st`even": 10461, "re`st": 10462, "pet`ition</w>": 10463, "div`ine</w>": 10464, "wel`sh</w>": 10465, "rac`e": 10466, "platin`um</w>": 10467, "\u00f0\u0141\u012e`\u00b8</w>": 10468, "p`b</w>": 10469, "extra`ordinary</w>": 10470, "solidar`ity</w>": 10471, "m`all": 10472, "on`ion</w>": 10473, "schedu`led</w>": 10474, "game`of": 10475, "fer`gu": 10476, "de`ms</w>": 10477, "nor`m": 10478, "p`k</w>": 10479, "tri`als</w>": 10480, "polici`es</w>": 10481, "publi`shing</w>": 10482, "st`ole</w>": 10483, "fron`t": 10484, "charac`ter": 10485, "van`ia</w>": 10486, "ex`ce": 10487, "sti`e</w>": 10488, "sc`a</w>": 10489, "resi`dential</w>": 10490, "sa`iling</w>": 10491, "\u00f0\u0141\u0136\u00a5\u00f0\u0141\u0136\u00a5`\u00f0\u0141\u0136\u00a5</w>": 10492, "spons`ors</w>": 10493, "th`ick</w>": 10494, "champag`ne</w>": 10495, "she`pher": 10496, "continu`ing</w>": 10497, "ven`ice</w>": 10498, "per`th</w>": 10499, "na`p</w>": 10500, "a`ster": 10501, "y`ak": 10502, "un`limited</w>": 10503, "cho`ices</w>": 10504, "ne`o</w>": 10505, "hi`v</w>": 10506, "repor`ter</w>": 10507, "bru`ssels</w>": 10508, "f`old</w>": 10509, "dy`s": 10510, "se`mi": 10511, "la`wn</w>": 10512, "it`alia</w>": 10513, "wi`fi</w>": 10514, "as`k": 10515, "em`ed</w>": 10516, "fr`ame": 10517, "monit`oring</w>": 10518, "ste`ad</w>": 10519, "i`da": 10520, "gr`in": 10521, "is`a": 10522, "fli`p</w>": 10523, "re`stric": 10524, "offen`sive</w>": 10525, "atta`ched</w>": 10526, "di`sh": 10527, "wh`y": 10528, "philli`ps</w>": 10529, "gre`et": 10530, "p`als</w>": 10531, "mix`tape</w>": 10532, "v`ou": 10533, "fiel`der</w>": 10534, "spar`k</w>": 10535, "alber`ta</w>": 10536, "g`len</w>": 10537, "ca`sh": 10538, "s`ri": 10539, "u`ri": 10540, "ro`dri": 10541, "entreprene`urs</w>": 10542, "climate`change</w>": 10543, "p`sy</w>": 10544, "d`le": 10545, "em`ents</w>": 10546, "lin`ked</w>": 10547, "nether`lands</w>": 10548, "acci`dentally</w>": 10549, "oppos`ition</w>": 10550, "vel`vet</w>": 10551, "ra`ys</w>": 10552, "c`w</w>": 10553, "om`o</w>": 10554, "m`f</w>": 10555, "lmfa`o</w>": 10556, "newsle`tter</w>": 10557, ":`)": 10558, "toi`let</w>": 10559, "liter`ature</w>": 10560, "di`sp": 10561, "phili`p</w>": 10562, "uni`form</w>": 10563, "sudden`ly</w>": 10564, "head`er</w>": 10565, "cool`er</w>": 10566, "--`-</w>": 10567, "prou`d": 10568, "bri`g": 10569, "nis`san</w>": 10570, "scienti`st</w>": 10571, "j`ah</w>": 10572, "con`centr": 10573, "pac`ks</w>": 10574, "appo`inted</w>": 10575, "so`ap</w>": 10576, "eng`age</w>": 10577, "cho`se</w>": 10578, "\u00e2\u013b`\u00a1": 10579, "se`tup</w>": 10580, "jeal`ous</w>": 10581, "har`ry": 10582, "g`ation</w>": 10583, "tun`nel</w>": 10584, "te`mp</w>": 10585, "osc`ars</w>": 10586, "dec`ade</w>": 10587, "recomm`ended</w>": 10588, "child`ren": 10589, "ab`a</w>": 10590, "anxi`ety</w>": 10591, "ve`ments</w>": 10592, "sal`on</w>": 10593, "pho`too": 10594, "organi`z": 10595,
[...]
